be4b4c87
3ceefe79
3df8e9db
bd516a79
be7c7673
be152151
be1fd5dc
3dc65057
3e7ef06a
3e0511a1
3de60a14
3cb9cbe3
3da85904
bd1fdd59
bc6086cc
3de90085
bbbc85b3
3d7e6d9b
bd428e8a
bec021ff
be696c34
bdd42c08
3da58f4d
3d01d170
bdb3b2e8
3dd2bdab
bcd0b617
3e499ede
be2f5533
3e063bbe
bb923bd1
3f12aa47
bd943697
3dc6f077
3e8366f0
bccf3a32
bec2e4a9
bde4fd24
bec128cd
bdeea901
3e39a185
be1b9092
3dfbd8bd
be1fefde
be614541
be4667ac
be84c283
befa1750
be15fd73
3f287d43
3e3ddcab
3e3d35de
be445548
3cfb6877
3dc37e97
bd29e38d
be942f6f
3e1b3cd1
bda955d9
3e0e0536
beb2bdc0
3e8f994e
3d94386a
bdc27877
bd1e6e31
be51c476
3e209b51
3e184ea3
3d9694ad
be2a3c10
3d887726
3e23fc64
bdf36936
be7cfc6b
3dff1e27
bd00db19
3e8af1d0
be101818
be9cad79
3dcc0c18
bea2cfab
be9b5479
3e1a1da7
3d34f0d8
be010c8b
3e8178e1
bdf3afc6
3d357e41
beeaaf20
3e076c98
be463c95
3e0b3eae
bd1365a3
3e172c3e
be1e9071
3ddbbe6b
bc42e3cf
3e213d16
be15b1d2
3e0bf2a7
be7987c6
bef632f0
3dbb129a
3de9d764
3d442dfb
3e5610e2
be5ff38e
be47426f
3d9da125
3e6f0e43
3cb3be23
3c78f19a
bf0ed667
3def653e
3e9fde29
3c1a8b87
be4a1648
be715a24
3d11f26c
3ed57b71
be0700d5
bed43dd6
3e02fd20
3dc0c7c3
be9a4225
bdbf4c57
3e2529be
bd390ca8
3e5fffc4
3e4da289
bededc6f
3eb2c667
3ed8901c
beb0cc27
3de257e4
bea91c15
bcbf7298
bd4ad9ab
3f29a3c3
be17b258
3ddb49d5
3d9b97f2
3e8d7fd4
be6608f8
beebb0f6
bb9d5783
3e0254fd
bb97b60d
3db2105b
be2ddc83
3db5d7ac
bf022625
3dc6fa45
3e07d6b1
3d6f63ee
be2c7eb7
beb83a3f
3dc3cf10
b8dad2c0
3d5cc908
3d00f10c
3ddce94e
bdab0f37
be27023c
be3a13c3
3dee60d1
3da511ee
be38da03
3d64197f
3e229db8
3cc2713f
bf24c0a0
3c2cc42e
beb2bdf6
3dcb6672
becbd7f9
beee7517
bf17f1b3
3ea41113
3cd11f7b
3daaf53a
be68df39
bd685ae9
bdb6200f
3e36f91b
3e18ae03
3df5ddc9
3e4011af
bdeec2ed
beacf0cd
3d73b97b
be84213f
be37391b
bdad8007
3e534556
be910a89
3da5e232
3df2b739
bee20776
3e3105db
becd7c03
be04f3d0
be7c8833
3e346be8
3dfca8de
3e6c044c
3dabf6e6
bea13ba6
3e84ea7a
3e25b1b6
3e631f2c
be05668d
bea00656
3cb90908
bc26cf0c
bd758caa
3db27476
3e371835
be84ace3
3e3fb6e6
3e96401e
3e7ca2f3
beb96dcb
bdd33281
be9aa7cb
3e564dc9
be8507de
3e14228a
be0b4ff8
be9a50ba
bd022c3a
be3d4245
3e49874a
be8639d2
3d947469
3e6aa7f3
be63a515
3ddb556f
3d55fe41
bee033f0
bd295b2d
bd7a1934
bd292918
3cb1a640
bd9a7e1b
3c1f44ac
3d6fc863
bb8e48fd
3d7e8b9d
bd32fb2e
3ec9b0b6
3d1c0562
3ef564e0
bd9f0a3a
bf017410
be7b615c
3cb118e0
be2a541d
be8cbcb7
3e4bdfba
be868cf8
3c8b82b3
be6829d6
3dd14a87
3ddd8634
3bc7b5f8
3d813b0f
3db10327
3e241e70
be89dede
3e0fc28a
3e0c10ee
3d9daaa2
bd58100f
be372728
3e0456e5
3c7c28e2
be92c5a5
3e30bfad
3deebed5
bec19155
be8fb393
bd63b4ef
3d4c7f5c
3e6a85f1
3ddfb626
3e2f3b7d
3b452693
3e3a6b43
be4794bb
3c974dac
3e75c7b3
bec124d1
ba3cd6c7
bdc6be8b
be757c79
3d1487aa
bd7b960c
b9ce92bf
3e3512af
bdba53e5
3e1dd6df
bf082324
bde256eb
be50d430
3e2b8aaf
3e64f3d9
be0efc9a
3e86f412
b91f4290
bec413de
3e842537
3de4e35d
be2ee674
3e6f5d89
bafc3a83
3dccea55
3d01fee0
3cb744e0
be4aace8
3e62696a
beffa57f
be278da9
3e13a2cb
bdd2d745
bd8df180
3d6113fc
bda807ae
3e81e2d7
3df02bd6
3daca07e
3dc02455
bb9bb816
3cec78d7
bdffcb9d
be297c67
bd456930
be45293a
3dc2ba39
3da920b7
bf123b3d
3ecb4f51
3e38ffdd
bcf4321a
bd9e04bb
bd76bdbe
be54fe8d
be8c2110
be5d8de4
3e627536
3db1ffa3
bdc79259
bd94a564
be531384
3dc975c9
be19272d
beabe813
3d8048a6
3e653772
3dd9fb6e
be53ae36
3e18fc95
be9194f5
3d836c3b
3e19f681
3c1057df
be0530a6
3d2139fc
be9afa4c
3e252262
be5ab526
bd7c6756
bd852e64
bdf6fb51
be489f5c
3dba380b
be1d80e8
3e4e2ca4
bda10ebe
3e511e4c
3e2d41d8
bf15df98
3dcd14bf
3d811548
3e114d15
3dd62ecf
bec7b3ea
3da8dc7d
bea6d31e
be4c5667
bf075800
bf2216b5
3d0c6ee5
bf01c228
3f3de054
beeebbfb
bef02729
3dd22729
3e33d67a
3d4e790c
bd37c3f3
3c781451
3d88df1c
bcc66f80
be0b2d2d
3d56915a
bd7a7871
3d917d6a
bba9f4f3
bd8e512c
3c43c976
be896b18
3d130684
bd58c972
bd8fc565
bed598a5
bd1964e0
3ea9b437
3e02397f
3d0d0a2f
bda64064
3d124be7
bdf5bc2a
bba43eb5
bdb57cdf
3d089adf
bcf86830
bdac9296
be078e1c
bded709e
3db38127
befd1644
3e89326d
be6f71db
3e801a82
bdd28715
3e4b8607
bd8c71ba
3c07a443
bf0aa91a
beafb748
be303398
bf0c3347
bf03d512
be96f413
3d992d1d
be7b32b1
3f6ac1d0
bdce6105
beae3e35
bdb182d3
be0147c9
3e0ff084
3e024e99
bb4478ee
3e05934e
bee1e00d
3e2404aa
3e8e944d
be97abc6
3eb396f0
3e2a4de7
be46e320
3e2ec41c
bec7f8b1
b9ad51d8
be641b66
3db9dd07
be79156a
3e306831
3c5e7144
3cd0523c
3daa4266
3e408f95
be9a4b73
beac3908
3e230a6a
be6ce08d
3e2e01e4
bc8b58fa
3e9272c6
be13870e
bf417bc2
bd72f224
3e37c4b7
3e95a655
bdd1472f
be75e993
3e8bdcfb
be179790
be98c6c0
3e913774
be28c58a
3da79a04
bd6b28ea
3e595881
be6adfa5
3dff4102
3cf5eab0
bed3c62c
bda1368c
3e33f94a
3e13618b
bde4b8dd
bd31ed46
be23c22a
3d9890b0
3c55bdd5
3e354ab9
3e513dea
3e683c1f
be3a9377
be1e2ef2
3dbb5490
3e3ec1e4
bd8e1b73
bd8051aa
be874d92
3e526bd9
bec7f2e4
3f0ac195
3cd00bf1
be723578
be6d8891
be39fd6d
3eaed145
3d8d290b
be3aa2b9
bf0910f5
3de292c5
bd86f9fa
3da2d50f
3c6e107e
3e2a2f85
3d45a7fc
be09a22c
3d557a17
bd207464
beb131d0
3d6a6cde
be02bc20
be840e79
3de47749
3dec05c8
be1ddd41
3d7c7ba0
bd16a2f6
3df58cfb
3d872d1e
be772587
be7e761e
3d8072c8
be12f833
bd9c8ddc
3e0d47b2
3de284cb
be0c68c8
bd991fab
be2e8990
3e5fad86
3dfd38f0
3e5716f6
3dd6a5aa
bd40cfc5
be81b90a
bd0c04c9
beafd518
be8fc398
3d030383
bbd5d3a6
3e5d82bf
3d75bc4c
3d8e0492
3ccbd89f
bec219c0
3dd65b11
be8bdf5d
3cdd6662
bdfe181e
3de9ef79
3e8bce8a
3f4620d9
3ecc825e
be4e4500
bec855b7
be717dc0
3dff3742
bf00e734
be203a40
3ef00c92
3e500c9a
3e0b6dcb
3e300e61
be120d4c
3ca17410
be6df469
3a0232b6
3dff5fd2
be1d1768
3d56c1f8
bda5d7f3
be915235
3e26758c
3d6c2061
bc220df9
3d970f43
bd1121c9
3d6fcde5
bef7b796
be0f0f76
be373c40
be5923b7
3e046f2c
3e84aa2b
bd510266
bdc342ca
3eb8c21d
3cc62193
bf2b60c7
be154a82
be784795
bee79fd5
3e005680
3deccaaa
3e6ef988
3d53a765
bba5c484
3d8827eb
be20d5ed
bd0fc377
3da02278
3e51c5b5
be184a16
be938639
be9f1e8c
3b01cd9e
3d7604f4
be028a83
be31f12a
3e36bc36
beb4bcfd
3e131049
3e793c56
3e61eb48
3de59df2
3db20a1e
be6feeaf
be59c316
be298e65
bd251738
3cf8911e
be7745b2
be317190
3df12dbb
be8d2474
3e2f8e5b
bdfc4a22
bae25d72
3ee8aac5
3ba0ace6
bdb619f2
bca4e24d
3cc4f189
bd4c6617
bc36a791
bd96eba2
bdcbe048
3cb2f8a9
be02fb45
3d78ed93
3e2ba221
3e154be9
3e26899b
3c1578d9
3e07adcb
bea6d642
be3b146c
bcac56fc
3d27e08a
3e10be2d
bdb35f49
3e0aea64
be6e3719
3dadd721
3d939025
bde3522e
3de81125
3cec8dd2
3d96360f
3d9b22ee
3cf7dcf4
bd9d3632
bd710481
bd1fffa7
3d418a85
bdb1bddf
3d491f9a
bdaf92c8
3d8c79b9
bd9581a6
3ded73be
bdbc119e
bd928435
3e160b82
be815055
3e39de7f
3edd01fa
be9018ea
bebe0e94
be9d4756
3dd50256
be2936ca
3e23747f
3c9000f3
3e58981c
3e206f03
3d213430
be7008ea
be67bd26
be7c531d
3e6c7818
3d9d8956
3cf9b7b5
be18dd45
3d4aa977
3db78579
3ea64643
bdbea10e
bee9ff3e
be1943f0
befc54ee
3dd269c5
3de7b8e5
3d95a514
be61a55e
3e91a20d
3ed6eba3
be214629
be86d795
be98adf7
3e4abc2d
be9797e7
3d916d0c
bc82ee4b
bb7d6c48
be1b5874
3d9c3f24
3e84f4b0
be0e2f3b
be1a3d39
be23e32a
3d15090c
3e26cffe
be0f3a2c
3d05c102
bc40f081
be3362a4
be468222
3e1bfedc
3e014683
3c653949
bd2a6cf5
3cf667f3
bd4674df
bdbf0234
bbd7abf7
3d883bbd
3cbce24b
3d9b8e64
be0594b2
3ed16a98
bec4c752
bdfccee3
be52242a
3dec26f8
be31bfdc
3e11fcbd
3de43c91
bdddb3b7
bd501b7a
3d658c68
3d39f1bd
bda6ea6d
3e479229
be14be18
3e058743
3e53f0a1
bebb7016
be14982a
bcbe6125
be2eb4d3
be895188
3e8fcc5d
be15cb99
3eb71a23
3cae6d87
3e5fab30
be66b481
be6312c5
bedcc7db
be07fbc6
3e173ce1
3dfc2c41
3e0e8938
3dcd4759
bc2918f1
bd895c7d
bd39970b
be48db34
be748729
3dc04952
3dcd7d19
bde91033
3e22dfd8
be8436e4
3cda482a
3dca802e
3de91d60
3e07ddd1
be170b5f
3c82551e
3e6919b0
be584904
bea5f53e
bda35886
be26dd2c
3f16a0ad
be15e805
be2cfbf3
be3b0061
3d34edcf
be02dbf3
be9f1feb
bea491a9
3e42a5c5
3e156671
be3fdcae
be266cb6
bdd56ef6
3e06b589
