3d77362a
bda0783c
bdd85d20
bc773807
bc908115
3d1bfb8b
bcb06b40
3cd7ec8e
bbdb1251
bca92a39
bd47ba29
3d3f3d2f
bc893ed9
bdb06bf3
3d25d1f6
3dd334ab
bd8aae98
3d8f66aa
bd2b76df
3db75931
bbdeef12
3dd3fcf8
3d701199
3e323ad5
bab951bf
3da64864
bdbd94a7
bbabe9f4
bd625a62
bd3dd03c
3bdef00d
3e15014f
bdcfaa95
be241f4e
3dc76fb7
bd1e6c26
bd4fc353
3c8e5c5c
bd0b7ba9
bd4a61a7
bd4f582d
3c390341
bd0e87a4
bde6006b
3c42a159
be9958df
3d38387f
bc622923
3ce88681
bdeae370
bd9d414d
3db24801
bdd8c747
bdbe521a
3e266c56
3cec7cf6
be1c8079
bc02f5eb
baa09df9
bad615c2
3d02ff71
3cfa8d34
3dada554
bdeed564
3cb65173
be673fb4
3a7d880f
be0a6a76
3d997fd1
3d934326
bb5ecc3a
bad06312
bb52307c
bdcca08c
bcc0c917
bda2766c
3d73f158
bcab73a6
bd588e00
bc34699a
3d492182
be26a4c6
bd5c082c
3d6fa30e
3d8488c7
bddfa1ec
3d07e55b
bc0db3f8
bbbe344b
bd90592f
3d2a48b8
bcb7d079
3db0873e
3d335412
3e1955cf
bd78fe1f
3d9fa4fc
3bb2dc7a
3c30a45a
3d80dbd3
3e195d79
3dc68e6d
bd7d40f0
bd8e6cff
3c34ce85
bc6a4a13
3d38eb9e
bc6c80c9
3d65ad09
bc9b42fa
3cc3a956
bd709e67
bc2ab705
3cf0940d
bcf833ed
3dc532cf
3bb29bca
3e017bcb
3ca9b52d
bc81c2d3
3d4e22d3
bd52a1f1
bc056920
3c89697f
bd10daff
3d3ecd25
3d2e6881
3d6af02a
3c907865
3d415528
3cfa132b
3e1cbfaa
bb3b6bd4
bbce8e9c
3d190cc3
3e02c1a9
bd097680
3d981b34
bc9a9ab4
3d5d533b
3da6d278
bd3de849
3c7e9892
bdf0d73f
3ce6f8cf
bca39b9c
3d0dc25a
3c7062e4
3d0b22b6
bd74ec76
3cdb23b7
3e084d29
bd465fd0
bd1f69fa
3cf6230a
3d2c602a
bd3e22c0
3cd077fc
bcf70714
bd91b891
3c5f1757
3c3d61ed
3c694ef5
3d85bddd
bc6da430
3d66df03
3ddd29f0
bc71c40a
be5e8127
bd9c5269
3deb0fa6
3da7f2b9
bdfc6d9e
3c96c35f
3da9135f
3e02de82
3dccc524
3db11e07
3d024306
3bee6660
3d3c6d32
bd099243
bb2ed0fb
bdcd087a
bd96d56e
bd4c04a1
bd4c0d98
bba4b89f
3d96011a
be16ea40
ba6d1040
3c27b189
3ac5ff36
3d5e3fa2
bc8f91be
bcfb8d7a
bda9475f
3ca0fc05
3c4d8b8d
3d902c8f
bc153e99
be64ec98
bd842414
bbcacb28
3c5dabc9
bc137e8a
bc9d2970
bc591eb8
3c83e087
3d283efd
3e2ab171
be326f40
3e1db5d5
bd18eb2b
3e0ef838
bc384598
bda65c1c
3d1f2b28
bd01cb2d
3d4c8b67
3d13764a
3dcf0219
bd0dedf7
bbe77451
3c0d6e5b
3cbf6fb6
3deccc06
bd0ba86f
3d6fda66
3b994644
bd1a2c30
bd9f6b39
3ce1cf62
bd93686a
bb96a5d8
3b40d6d7
3d3aa56a
3d5976cd
be101705
3da6f689
bcb01db5
3d5c60d8
bdbff9f3
bcf87596
bc2bd822
bce17535
3c70854c
3d01077d
3cff78f8
3d914d3b
bc0d6293
3e10dee5
bcc9e945
bdacbf47
3d410509
3c3fce71
3cea8838
3e1b4e77
bcfc1435
bd6c275b
3d808bba
bcc80fb8
3d4bc4a7
bdfa3e32
3c0fb1da
3cc64029
3af9a9b5
3ccdb59c
3ca9df8d
bd7a9943
3b87d239
3e08f215
3c7018d7
3cd19fee
bc3cac59
bd0ff73e
bbd3c4b3
bd0409fc
3c2095c2
3b928d14
3d16faf4
bd33aa9d
bda8df7d
3d5a24c8
3ab58768
bd2be1c8
3dda68da
be0a3338
bd926784
bcace12a
bb6aaaff
3e231052
bc31ad9e
3d5a2961
3d29833e
3dfd172c
3d9183bc
bd898f9b
bcbea70a
bd2053e4
bdc4a026
3c8878d3
bd71a018
bbe6ce51
be2b6afe
bdbe40a8
bc04dff1
bdb3ee88
3e1c88a3
bda0a381
be324d68
bd11ecc4
be1a8e15
bdb11319
bd498606
bd7f50bf
bc49d06b
bd27098c
bd32fb25
3d49a3bf
3c9f6df0
be3b0a82
bd611a54
be570594
3cda062d
3d5b55e5
3d009c6d
bcfaebfa
3d234cc0
3c79f2a7
3dff1798
bd4a5cdf
3d40d3d0
bd6d67e6
3e75f906
bd73dfb8
bd0d3cee
3cb62626
bd5634c3
3db5bc1c
bba30587
3dd5eadf
bd5aca2b
bba2942a
3c8e20d4
3bf12722
3e6ff446
bc8f104b
3e1b2f38
bd2dce5d
3ba5f5a7
3df0aad2
3d884eb9
be102a68
3c3847f5
bdb37b3b
3c177063
3be80758
3e404146
3e0833dc
3da602a9
bcb35eb7
3da0a401
bd7458f0
bad8f513
3d371ea8
3d23069e
3d8ca29b
bdb382c0
3de21681
bd3fb8a4
3e0c8648
bd3c16bc
bd81b757
3d050ca6
3d0e6b31
bd46bb19
3da33307
bcc11634
3c6f1c58
3d86384b
3cfc63b2
3e046a9c
be2900fa
bd18252f
3d9f0bdd
3d2ec3cc
bd85e299
bd422442
bcb27b5f
bcd70ce3
3e17b3d0
bdbfa239
bc8d2d9d
bd0b1bea
3d0a7998
bcdf2c34
3d880340
3b3a1505
bd50ab23
bd2d26e9
bd3381ed
bd022859
3d98f34e
bc0a069b
3b019504
3de3dc94
bdaf267e
be25538e
be692df6
bd0d206c
3e34c55c
bd939020
3d822f0a
3cc565dc
bcab8902
bcb42592
bd2bbf34
3c9345db
bd0a9b0b
be15b8fd
3b97416b
bd04a2a9
3d59eee8
be231f64
be0d4747
3cb680cf
bd57296b
bc79b9bc
bd327a66
be846dc6
bd0fefe9
be35db9b
bcae7019
bd278273
bd35fb9d
3da7995b
bd7c2ca9
3c5dddaa
bbd5efe1
bd19c266
bd66eae6
bd4e7e93
3b35ea83
3c9d1fe2
3d312b3a
bd031583
bd091eec
bd6b7629
3c990ec0
3e61015a
bdab4101
3d8835ea
3da9fa7c
3ea28b58
bccf33dd
3d8751aa
bd089ba0
bd2ecf8d
3e0d57f2
3d4ccfea
3d974b66
3bce9811
bc97da38
bc997459
bd6d66cd
3e401016
3d11a5ee
3e6a01d9
3d0530a7
bc93a9af
bbaf1402
3d93605b
bdca9b75
bd4834d4
bd4e2648
bc8fc9f2
bcf27cdd
3d9f741f
bb0bdd2b
bca1f7ec
bc3f9555
bd8eaf08
bc8ef208
bc8dd99a
3d97d933
3a86cab5
3d9566ec
be3b2ec8
be10db83
bcdf1358
3e77bef5
bd30b163
be62af49
be1ad2f0
3d8620c9
bcbf285f
bbc6ce88
bc4e1338
bd1d2340
3d5def65
3d5799c5
3db8f174
bd8c9923
bd1843dc
bbdadc74
3d55a8fd
bb698f23
3cc104f4
bc71e7e9
3c88caa0
3e37aee8
3c9670dd
bde218d6
3da2bb3c
3d47994c
bd30763a
3e0638df
bcc21926
bd73ebb5
3ca5b3be
3c9a39bc
3d3593f8
bda50e61
bd425e8d
3b576c91
bb9558e6
be1059b9
bd2cefaf
bc878f73
bd8eaead
3da8c51f
be0a1959
bd58cc7c
3e011ef6
3dbf27b8
bcbee78c
bdbba367
bd02820d
bd0f04b7
3bd634ab
3e238b74
bd09cc2e
3d0601a6
be218bd0
be33d700
3db9e074
3dc6a905
3dab87a9
bd9009c2
bd43b6ca
bd3f354d
3a799d8e
3d8bbcc1
3cd764ab
bdb30b99
3d2af43b
bd1b111b
bd4652fb
be169ae4
bd367eb1
3d1bcb5c
bd38313b
3e149cfc
3ccdf7fb
3d687a32
3c99530a
3c1fe3d8
bccd7684
bd2663a5
3e4b8e40
bdf6a985
3e4d88a0
3e195dcc
3e161b9f
bd6bfb89
bc712ab3
3c41185d
bbc0a453
3d815a79
3d01b891
3dd5a85f
bcf076ae
3cb250f4
bca14c14
3d1412a0
3c765f90
3c2ac8ef
3e431c79
3ccea798
3d063ba0
bd2b96a2
3d00bfdd
3dabe95c
bb50be78
3da3e038
3c4605ee
3d94cb68
bcfbfaca
bcf897a5
3d72505a
bdf70d42
3e76f125
3c615465
bbfaf810
bb4895d9
3b1ecf2e
3d1ce8ce
3e0970d4
bd2c37b6
bd741580
be3b4a35
3b4f2e7e
3dff8419
3da59c1d
3d960ed6
bd81dd50
3cfd1693
bd3ab266
3dd28fb0
bd1023f8
3d2c00a7
3d114e87
bd84e694
bbf4d0ca
bda7dee4
3c5f8844
bbd48587
bc3b3a38
bd404f7d
bc892416
3e06974f
bdc86c00
bd9a20b5
3cca3047
bd94101d
bcde1314
bcf6cfb3
bbe7b8c0
bd3a5071
3b0eb65d
bd1f0b1f
bbe124a5
bd8ce88e
bd8a339f
be89329f
3d0267bd
3e0ac0f7
bd76753c
bb6488fa
be4f63ed
3c7f99c6
3ceded2f
3d4d20f0
3e64a41c
3cbaa83d
be165415
3ca93e23
bd3de3e7
bd7ff08e
bd5cc060
3db5beba
bd090614
bde273f6
3d35124e
be4e8df6
bd15b1e1
be27d0ca
3ddc986e
3ddbfef3
3cdaa918
bcd39347
bd42ae87
3dc6d523
3c918551
3e021a71
3da72720
3cb0be48
bca2e5af
3cd0ba9c
3d2b76c0
be3109a8
bd4d90a1
baf3b54a
be37b67d
bd5b3c78
bd72235b
bd0926e0
3d2894f7
bd26715f
3dfc610a
bdb12f57
3d1ddb94
3d76c385
be4262e8
bd9434a8
3d85ea83
3caad6e7
bd5a0600
bb4da212
3c80af7d
3c1a7152
bbf6ae48
be1ae9e9
3cdb3e9f
bcee749e
3dbf151b
3caeff12
bd619fba
bce7bea4
bcddaf63
bd4b7e9f
be15d6a1
ba9bc4cf
bc2e9573
3bbd848b
3dfa065c
bdc1dc8d
3d965fa4
bcb0bf23
3dc77ebb
bdc220dc
3bf233fa
bcfed141
3cc82a70
3d0a433b
3bbbd288
bc58e570
bcee9978
3ddbe694
bd7de482
bdc4ed3c
bd6f5184
3ce6a7fe
3d53e424
3dc1b8fd
3cb79d8a
bd397ba9
bd07c84e
3df40890
bcec23c1
bd89cc9c
bd98eeb9
be468989
3cf2c62c
3ca79c81
bcb7646b
3c8d0bf5
bd00c18e
bdb40655
3cb75ed0
3d8cde79
bb9369a7
3c823fdd
bd9b1f52
bc9d93ce
3cf7b330
bd78127f
3d2f3cd7
bc8ee609
3c810b8b
3cc981d2
bd33dc88
bd043652
bd551a40
3dc43d52
3ce21445
3d9a9004
3c01426f
bdf1a0dd
be44e12f
bd32ec92
3b015f26
3e288fa8
3dc4edf9
bcd87d1b
bcf17f98
bdb53fa5
bd2d31e3
bd139ab4
be5e493a
3b968e0a
bd80c771
be0e77ad
3dafe30e
be1e417d
bd88d8fb
bdfded2e
3ce7f60c
bde290d0
3d94b3b8
3c100d7e
3da8e3a6
3d27f01d
bcb4c627
3df7d710
3df4d0dc
bcbcf9be
bd1a4c9b
3d87d88f
bd04a958
be2eeec8
bcc5664a
bca4d7dc
bdf80ed3
bd072dba
bc67aa64
bd28b4e7
bd49e021
bb4ca95e
3d811f0d
bde40a71
3cedfd4e
3dd065c5
bce0ff30
3bccb74c
bda81121
bcc1feac
bd009517
3df03d08
bd9fb978
bad23824
3b86c419
bc956503
3c8f6481
bd92ae0f
3ca10cdb
bbdb0231
3da1b914
bc7856bf
bd2e85c0
3dba3fe8
bc78b67c
3d9c08f1
bd63dad0
bd0eb0f3
3d93d21a
3d3fa33e
bd0b81cc
3d963285
3e1c25a9
3bbef693
bc807a67
3d08a450
3c7b49a8
bd41f509
3c702476
3e1e48b4
3c66bec3
bd2b420e
bd92d51a
bcd5ad67
bc992830
b98045bc
3cd5ca5b
bbcb6953
3d8828f2
3d7fe436
bd1b3f23
3dce8752
bdc40a70
be0f1e3f
bd41885d
bdf8f8f9
bc9372b4
bbb50411
3d88ce69
bd46483b
3d15e637
bc742193
bc7c64d0
bb38337c
3d71bb6c
3db2f0bf
bd80cd71
bd80b5ca
3c5ba5c4
bcad1cdb
bcd9155c
bd471eb0
bd59c736
3bfa5f5e
bc95e913
bd1b6ce0
bc133aa6
3cdaa231
3c00a05f
3e1708c1
3c0f16e4
bda57dcf
be823d0d
3e0c5256
bd2a33f5
bd0ee418
3d32286e
bcd827eb
be2bb519
bda37a34
3ce8afe9
bd42a69e
bcebff80
bc1b055d
be23b8ed
bded87f6
bd5d5b7b
3d79cf87
3cc352de
bda5c3ca
3d255753
bc69e034
3d26680b
3c4b54b0
bd5b0f34
bd0977ec
ba38d1c9
3da8ac87
3d5e2a50
bd4c48c8
3bab4214
3d361087
bd064f42
bd2056c2
3c1d6d98
be81a35b
3c3eb149
bca015df
3d13dd4a
bd119bd0
3ce44a2f
3c9bf084
3d8de4e5
bd881464
3e05e475
3d522d6f
bded6b60
bb93764c
be1c3cd2
bc25fca8
3c29edd6
3d76ca04
bc73c390
3ce6a70d
bd1a4c8c
bc8ab500
bd397554
bc91606e
3e4558c2
3d174868
be05b561
3c0bd5e7
bc462bea
3e49bbee
bc7d7514
3d3ae708
bd5d23be
bdf2e2e5
3d24cedb
bd207c44
bd7cf179
3d78bd5f
3d8a6927
bd6b155b
3e1b7003
3c82165d
bce7e843
3db63ee2
3b9e5344
bd453d66
bd8f1755
bdb8b2a7
bc634537
bd7359e7
3cb822b2
bdd86298
3af101ff
bc198ac8
3dab25a6
bd1d5340
bd4ac368
bd4031e7
bd975bf3
bbcff7a3
bd515557
be4e122b
bbd9b7ce
3c85b054
bc8da992
3c9d0b72
bd311d5b
bd4fe36d
bd009a4b
3e1a3ce2
3deda105
bbd3f239
be1b3285
bd0b4232
3901002d
3c7b6e0a
3c11d9ab
bd1d4b89
3c56e642
bb90f8bd
bded4a5f
bd22b290
bda5d784
3d8133a8
bd0d8dd7
bc2e0767
bd499e63
bdc09622
be39a9ad
3de97b7a
bda3e448
3c7930a2
bd1456a0
be3d2097
be26f5a1
be6f14a0
bba07cc8
bcfd6af7
bd8de184
3d1ed79b
3bddf550
bea9c3de
bd538e96
bd193255
bd76ed3b
bd2dee4a
bd1ec3c9
3d18c57e
bdf5ff3b
bd7f7fe7
bd2fdc0f
baebc376
bcfd31b6
bcc3ea60
3e60282f
3c583837
3d061ed0
3dcbb749
3cf5f4c2
3cd2df66
bccb3588
be89fb69
be017e2e
3d851087
bc80e115
bcec7fa8
3c2beac6
bbc8b71a
3e10ab22
bcd7f90d
3d67bbf2
3c770de0
bd25ed6c
bd42cb7c
3c94e68b
bd0b052a
bd116600
bca581d0
3dd71275
bc60b71f
3cc3d311
bb17e919
3ca133f8
bd9100e0
3e1bfa03
bd2b7735
bd1e530c
bc3b18c8
bc2f8cc0
3b81c947
3da23114
3d99b3f2
bc177c35
bdda34d8
3d8b1450
bbacac26
bc35e845
3c817901
bc1fc62d
3a07eae1
3d54552d
3ba71fad
bd33d1eb
bc191a85
bb756f10
3caf840c
bde93ce4
bc975027
bd2e5982
3ad70a69
bc4036b5
3ae32236
3c88c333
3dafc899
3dc091ba
bd956888
3b859d88
3d910146
bda21e0c
be205501
be400191
be05a587
3c9baa12
3da494ec
bb840588
bbc81a03
3c9344fe
bd211b77
bd1a3676
3d78f745
3d171cec
bdadfebc
bcbf4b8b
bc095feb
bc7d5192
3bcaf505
3c7b952f
bdb2867c
bc31787e
bcb7b936
3d8087a4
bcaeed53
bce6172f
3d6ee1ee
bd431a9b
3df1c1fd
bd514e02
bd6e8d9f
be3d3cd2
bc820ca7
bd3e274d
bdd6ed13
3d46dca6
bd9d6204
bd5e31b4
bdf04cbb
3d159e2d
bd475dbf
3bf93cb5
3b32bf24
bd497195
be512178
bd445f34
be5bbd47
be06480c
be28e77a
bdefa1eb
bd7fffcc
bd9096b5
3cb20213
3dd62a58
3e2608b5
3bcb9e47
bc8b03bc
3d72860e
bd5d304e
bcdc3c3b
3d98fa65
bd1c0b76
bdf88364
bd701d55
3dabacfe
bd9c3102
bd35c593
3c6a80f0
3c7c8400
3d1a891e
bd0510bb
bc930a33
bde7a5b1
3d351c23
3d32238f
3cbc99d6
bccffef0
3d085c1d
bd505b7f
bceebcf3
3de48c0b
bda6ddd8
bda7c9f4
bcc4f214
3d6aed8a
bca655db
3d06e51a
3dcbcce2
3c8dfad3
3d7eca85
3c702df7
3d0e066c
bd90ccee
3c8ea270
3d3480e7
bd710dc7
3da8adfc
3d1c026d
bb678b6d
3c9ed39a
3cce4f7e
3d82f70c
bd03bfa7
bcb80c52
bca99efb
3c822ccb
bbb56b9a
3ce500f7
bcd08bf3
bdc4478e
3d5b641b
bb15b8e3
bc675a7d
3a8767a1
3c43727a
3dd832d2
bce48814
3d573507
3d802707
3c868c0e
3d762f62
bc12e3c3
bdc3b97d
bd8a96df
bddca742
3d0fc20e
3d533e10
3e28c9ae
bd41500c
3c71418a
bcb8c112
bd3a7978
3db67b8d
bde08a37
bd80917e
be2661f0
3c6eee1a
bc752eda
3da794ae
3ceb2b68
bd3ef41e
bd08a722
bb3b0326
be05e001
be2d6feb
bd88d1a4
be0e5ced
bda79e08
3e3184f7
bd874649
3d05dd68
bd76b028
3d6a962e
3c975afe
bd4b7d68
3dd54425
bdbc5e5a
bdc85f1d
3d899cd1
3cb033b8
bd69e856
bd1a1880
3da145a4
bdb9da2d
bddb09d8
be75e883
bdc63b0f
bdeeffb9
3c13e10b
3e8bc3d5
3b25be9e
3d3b683c
bd1c662b
3d6492f5
3dc8741a
bb941945
3d97ac24
3d11a981
bd523cdd
3b9bdbee
bd570361
3c7cba00
bd9198e9
bd3d61b0
3dd48ce6
bc9acf5f
bb977ff6
3cd20a22
bd5073a2
bd22df53
bd08605f
badab8ae
3e21855e
bb92c34a
bd8abc98
be48126e
bda10d8b
3c75e00f
bceeda5f
bd604684
3df92145
bdc8f316
bd3784c3
3d17304c
3b518844
bc1a0f10
bd88becb
3e1f6765
bd43de1c
bda80888
3ce89e43
3d16b543
be7add0b
bcf525ea
bd8f8d8b
3cdf62e0
bce5949e
bd55d580
bd64e5bc
3d047a0c
bd530716
3d729f29
bde0ecfc
bdc42448
3c64eea1
bcad182a
3d2c57c8
3d2df92d
be30bcc6
3b73602b
3d808600
bc92a668
bdeb1a30
3c1f31a2
bce81879
3e122bc9
3d8eb054
bc91a7d3
3d426961
bd1a561a
3b6356dc
bd90d4cf
bc36b530
be1f8119
be37935f
bd4f4e13
3ca49005
bd8303f7
3c474a21
3cafc850
bcbba12c
bd35d0ce
3d5cba57
3d750a01
3e510e94
bed521f6
bc601bb4
bbcbb133
bd41ff13
3d4b77a8
bcdac8ae
bc5cdbda
bb8e748f
bd9ca00c
3c9b7f2a
bd901f3f
3db00e6c
bd0c3e39
3ccae793
bd3c2743
bc9bcd2e
bdb5f84c
3ab969e7
3d6e0716
3d6d4284
3db9b593
bdbff5f1
3d5a6401
3d6f79b1
bcc7f4ee
bd5485f2
bd8ea2ef
3dda94fe
3c8c8273
be48de97
bdef23a2
bd79910c
3c5ec9fd
be3c572e
bc0362e7
bcd7c6a7
3cb07d3c
3bc6f2d6
bd8c0733
3c1e9ff1
3be2c823
3d80ca22
3d92c48b
bc2a4d6e
3c14aae5
bccf442f
3cff9afe
bdbae352
bcc3adb4
3d9e6392
be0a9d26
3c0ef286
bd2e8f9f
bcf0210c
bc219d7b
3c6cc590
bd32eaf4
bddda5c6
bdabd62d
bdd69daa
bdb653a1
bd331759
3d2e05a3
ba4b021b
bb7e0317
3e4f3345
be6a9ce2
3e19ec84
bab54647
3d79c0f0
3c149eda
be49cf35
3e2c87de
bd2bcfd7
3c30a10d
bd3c4a4a
bcdb43ac
be0858f0
3db34fc4
3d213301
bd2ce857
3d5778d9
3cffe077
3e0d6a79
bb9d5a84
3dae716a
bd7d030f
be25e678
3d97fcc1
bd584b6b
3acdd63c
3c55ef48
3d065dcb
bd92c36c
bd9c4be1
3d3b4ad2
bb0d459d
bcc14241
3c7467ee
be6b01bb
3e1ec185
3d8fa583
bd4eaaab
3d7d61ef
bced5274
bdfa5dce
bd79ccc0
be264b3a
3d66c52c
be565b62
3ce016c2
bc1b9dcf
3d524053
bcab1bf8
3cf55a00
bd975e1f
bc385075
3d9e0edd
3dbaa4ee
3ddb760b
be94c393
bc6d468e
bc084e07
3c35f01d
3c2159cb
bdbbac6f
3c862b50
bc95be33
bdcbeae2
3d0bf85c
bd4faf90
3e42698a
bcfa53e7
3d991974
3e0554a7
3d3657a7
3d8eb723
3dc8e1d2
bcc7621e
3cc63e27
bb3f71cd
bd629ff1
be200288
bd8f600a
3cb32ec9
bc97e3db
bd830c2e
bd1e392a
bc6107d3
be369460
be67952a
3d3817e7
3bdef894
be2b6576
be18f665
baae328e
bd15574a
3d17d250
bda8b2e7
3d037798
bab223e2
3d8607b1
3d8c58c4
bc50ce9c
3d09991d
3ce91104
bc40554d
3d225345
bd90fdc5
bd2dbb61
bd820f3c
3d9c9815
bd3f3d51
bcc08d2f
bd02c24d
bd530055
bd1e981c
3cd95d29
bd8e0f42
bcc595d1
bd6d85cf
bb45b1d9
bd8a1291
3d3cf5f7
bd5a55d6
3e2d5482
bcd52657
3d6c2502
3c076df1
ba5bcef6
bd2f532e
be2c79c5
3e0e7ba0
bcb78dcc
bd3133bd
bbb0e1d1
bcd417d4
bdf53294
3dd044dd
3df59688
bd2998a1
3e3a2b38
3df3fb17
3dd38b3a
bd8ee21e
3c9427de
3dbcddc6
bd861a23
3cae5652
3cb732dc
bbc9f973
bdadc5f3
bd1a3a20
bdbf3c81
3cdc5e01
3d9d1b3e
bd486e02
bd7247ce
bd522c05
beba888a
3ce20079
bdbf9626
3c7f07f7
bd10a122
bbcb2d4e
bde6bd13
bd14d000
bdd84bba
bcdafd21
be39ade2
3ce27a06
bb404fb7
3d2fd7f6
bcea6b81
3cbbce91
bd108528
3c693279
3dd7611d
bbb9ecc4
3dfa1d6b
be9671c7
3cf7e726
bd68f36b
bab916f8
bbc624ce
bd93a153
bc1277b2
bd3e3d37
bdd96b3d
bc532655
bad00d1e
3d09931b
be039b49
3c88a9ed
bd1e6f02
3b3f3f2c
3cd3dac9
bcad92bf
bd1013eb
bd3d482a
3d5bec38
be1a01f0
bdb7302b
be005da8
3cf3c8a3
bd7312d7
bc2fe130
bd276eaf
3cc8c58c
bea53995
be1db77d
bd521a6a
bd75a19f
bdba9505
3d8ee928
3d31bd15
3e33a7bb
bcc3e2f0
bdaba51b
bd78ce9d
3ce5f3e4
bdd68157
3df46fdb
3c92e230
3d2b20e6
bcf4cde1
bb86d884
ba1d411b
bcec2b4b
bb654d57
bd367aab
3bc6be8c
3cc89a5e
3c7472c3
bc016894
bd5390a6
bc6cb1ca
bcb1faa8
bdb1024f
be0984df
be57ba93
bd1caacd
bdc9c647
bd3f5090
bd7fd33c
3e03d635
3e038fff
3db27f09
bd44e660
3d8e3c09
bd37ae40
3c641b42
3e1e8bea
bd3d2596
bd22f317
3d3973de
3b2046fe
be0b3b98
3e04cf1e
bd3d4e64
bd7b0f5a
3d8c0856
3dddc6d0
3d6dbc1f
be3dfed3
bc705796
bd927493
be359ffc
3d06792a
bd34dfe8
bc5d2dca
bd813824
bd2e92ea
bd03154c
bde3becd
3d14f6c2
bbdacd32
bd6c05fa
bc6d381c
be053de0
3c2d6db2
bcfc23ed
bc8a9d69
3d2671cf
bd4f8bd3
bdb66b58
3d39722a
bd906b91
bd4f6253
be7386ed
bd140819
3c41a1e3
3de040d3
3d0c0aa3
bd488d5d
bd9f19ad
bd3446cd
3e12b3c1
bdd99e08
3d7c7cfe
be25e3e0
bc867d3d
3cbbbada
bd7af9db
3cdf0a30
bd66702a
bd65974c
3c70163e
bd973f41
bda92283
bc9c9410
bd961310
3b69d81f
3df12658
bc2febc3
bd2a60cd
bd5668e9
3d2a05d1
3d16fabb
3d323fdf
bc63283c
be24491c
bdb79542
bb44ac8c
baa0207a
bc8442dc
be05ed1a
bd685468
bdac329f
be30bc3c
bde400a3
bda55286
bdcee164
bd6e02ac
bd3d5fb4
3d522954
3d0bae69
bd210ba1
3dcf06a6
3d8464ef
3cc45b39
3d7e29c0
bba140a8
3c9217cf
3c991a9b
3d73876f
bc54300e
bdf13a74
3c9f7bcb
3e28833a
3b813ef5
bca27646
bd3251fa
3d2e0e17
bc82e9db
bcab3220
3e1a3680
be0598c7
3db9b053
bc444542
bd48bf04
bcc5dd9f
3c80ec93
3c4e40c4
bc90aef0
3dbb6cda
bcfa69b5
bb756c6b
3b1adc12
3d1a1777
bcbeac2c
bdcb8933
3dd08ac5
bc57ac75
bb836bf4
bb5f2d62
3bc64f04
be8a9e2b
3d0e6277
3d6cc7c5
3b8c933d
be1f5bcc
3d4b19b6
3dbaa8af
be24b5b5
bd65f4ec
bc524e12
be28e75e
3d9fd0e4
bcc420a9
bbf96afb
3e404227
bd1dc6f3
bc36d084
3d79c415
bdd6a7c4
bd09d626
3da7f0f2
bd4fb11b
bd18f0f0
3e1aeb75
bdbdc784
3d8e7225
3de2d011
bd3b2565
3ba6ec85
3d0d739c
bd84456c
bddf96f4
be090d92
bcf4db2c
3e06dd19
3e2c69c8
3be99cce
bcadafda
bd6c8fd9
3d05bcbb
3e12b411
bdf19a69
bd7d805a
3da8fbec
bd552797
bc63c9a4
3d558d26
bcb2f4b9
bd60eb70
bc39b3cc
3c9feb06
bd03b6f4
be46828f
bd72cc15
be40ec25
be63a07f
bc38b386
be213273
bdb267b2
be82ddda
3d6685de
3d861fb5
bd981e7f
3c52cfcd
bacbf233
3d0734f9
3e2a6415
bd3bed07
3d137bae
bd2ed3bb
3e109ef1
3d485f32
be741464
bbd306f7
be4d9748
3d884b13
bd4948c9
3d9033c0
bdc01cac
3d336193
bd14f4c4
3e3c4e07
3db07827
bd704160
bcc4ead1
3dab1068
bd3e3d15
3c863eee
3d182d6a
bb94d027
3c56d0f3
bcc393f6
3e3dede2
3d14b5fe
bda2e9b6
3ba7692b
3d30130b
bd366798
bcf04ba7
3dec8ee7
bd957797
3db6175d
bd222a60
3d6aabf6
3c7fb8d3
bd44ab12
3ce3c23f
3d373871
3e171c2f
be11da0c
3da6734a
3c816d3d
bce24a5f
bd35e1a8
3c81a716
3c6e234b
3c8a125d
bd873184
3d1a46a4
bcc76739
be4356dc
be33aafd
3d8c8e53
bd1ff2be
bd1055a0
3e2a8db9
3cd8d305
3e18e8aa
3c11c530
bd206b45
bdec4903
bdcba745
bc34c206
bc988088
3d041ffd
3ca89d5e
be5fe0b3
3caabeee
be29959b
bcf35153
bd3f71e7
3c5b31f6
3d3a3d2e
3c684559
bcd23a06
bc3b5522
3e307daf
bc1daf43
be14ec69
bcb6c973
3d5b4e78
bda6c23e
bd2a2026
bcec2bda
3da282ef
3dfa3cdd
bc813970
bc2580de
bda491d9
3cea2a41
3c9d266e
3cc5d125
3d966fea
be9fd0e6
bb6f0d46
bc7a50c3
3dbffd20
bc597c9d
3ba37d0d
3c8c355c
bd244535
bdea2a0f
bd7ec902
bd1073e3
3de8d229
bd86faab
bc8926f6
bdcf1484
bdc210e0
bd696d11
3dc3314b
3df22e7b
bcbe771e
3e15ee08
bdfb9c9c
3e20f022
3e07d338
3c8475ca
bd0569da
bdcb6db0
bd27c559
bd535f56
be20f28c
bceae098
bd492df6
3dc3ba4f
bdb95ac5
3d9a18b1
bc964a8d
3d988d54
bd7b2630
3db19e1c
3df264da
3cb0f303
bd4521e3
bbc112b9
bd909d16
bbf1bd50
3d662460
bb82580f
3d95f43b
bd3e6736
bddb8f97
be120450
3caeeb70
3cfffab4
3cdf684f
3b99f710
3cb65f31
3d8b1a38
bd0c920e
be0c570b
3d0e560f
bb506699
bcc03b96
3d85445a
bbc0d366
bc309161
3dbb302a
be52d27b
3e2d91bf
3cb6f6c8
bd3bbac1
bc944c23
bd898650
3db26f23
bd2744e6
3e17f404
bb8a64b1
bc861672
be8f1ec8
3c8df410
bd0b4bba
bd5083f7
bcac26ab
3daccda5
3cd9037c
3d62ca5f
3dca32fa
3dbdabb1
bd0b6cb9
be5e168b
bc925315
bd3562a7
bd7a0ace
b834a366
bdd4c21f
bd5ec4d2
be2d19e2
bd3aaeef
bde80594
bd7934c5
bdd7c661
3d7cd16d
bdb82b35
3df4fed3
3db9ac1b
bd1810f1
bd946d8b
bd89c315
bd887b39
3cbb37ff
bc54f245
bd11ea57
3d089128
3deee0aa
bd5817d3
3c36d167
bd3af056
bc1e17ab
3d643c94
3e03729c
3d8ef10d
beeb9293
bcb926a8
bd783ac5
3e02394a
3cb51825
3c6ae22d
bd2aad63
3c590715
bd845a5a
bdf148be
bd7e2f3c
3e24550f
bcc7fd0a
3d7c7997
3dda511f
bb7a8f3e
3d26eb39
3d4c50ba
3e2169ce
be71020c
3d2c0edb
3d0aecd7
3b8634e6
bda98816
3cb0ca6a
bc3a10f4
bdd6cafb
bba327b9
bcb09731
bd3edfb4
be2a7033
bc2f102c
3e0e5290
bdb18a0d
3d2848e8
3ce4929a
3d8ec973
bd4de1ed
3dc50037
3d2260c9
3d05c6ca
be241688
bdcc9d7a
bd44551b
bc25b947
3e08e3d4
3d0ad98f
3e322aa7
3c3a224f
bc18cb5b
3d87a6a0
bcf44bc8
bc8f6498
3cfd9638
3cf4691d
3a04a5f0
bd6bec40
bdeaf3b3
bde75d03
3e0ae9e3
3cf0be97
3d1e0137
3d8ce465
3c3727dc
bcea3755
3d6179cb
3e06a040
3e171223
3bae10e7
bdb9cd3c
bce09cd9
bccecb3b
bd4b5a98
3c8e9b62
3cecb1e1
3cd4e49a
3cfc09ab
bea2755b
3a06a9d3
3c1b0495
3c5901c6
be2218e8
3e227181
3d9e0d8d
3d681b80
be5a6b31
3e08b2c7
bd8806ac
bdd5d61b
3afcc691
3d09f879
3ddbc96c
bd325248
bdb3d9e1
bd941903
bc8e5c93
bcf431e4
3b5830ef
bc8ddff9
be4ba5e5
3c0bf2be
bd876f3e
3cb87c87
3df4d62a
bc9b8d85
bbeff35e
be79d826
3dac5ae2
bd24ead8
be235d06
3d2d4005
3ba10d30
3d808161
bd5a581b
bac4f1ae
bd91822b
3b3b0ce1
3e0fe2bb
3d8fcd85
bc52e8ac
be9c871c
bd1b6999
bd60d02b
3d34eb1a
bcc1fbcd
3c2a2d26
bc8b90ec
3c793b70
bd96e81f
3d517d3a
3afedd15
3d439d22
3de0e8bb
bc3ff8b3
bc576f9f
3d0182fb
3cf8d8de
bd4c9c00
3e2aeb83
bdf99c9a
bd249794
bd52c001
be1727f0
bc796d56
bd386d6a
bd468a0a
bd45a4e2
3df1bccc
3caa3f26
3d6e0dc0
be0e6aef
3d4b89b3
3de08321
be843152
bcb7af6e
bcba8c20
3d9ceacc
bca07c46
3e23d4a8
be20d466
39c0da54
3d287a5c
3c955bb9
3bb4fca1
3d040ea3
3d8502e5
3cb2064f
3e8055b4
bcc1c455
bdbd7cee
bc9a7c21
3ccd63dc
3d2f55aa
bd1f276e
3d022b15
3c72a23a
bc888c37
bd8fca04
bd258131
3d140490
3c3aedbe
bcb1ced0
bd894fe9
bc6ca521
3bc60143
bc6a6117
3e25d5ed
3dd0f2d2
3cf9845b
be6125c4
bcbf8443
bd972b96
be19504f
bd2c9398
be0b8450
bbedb732
3d06777e
bea1be3d
3db54475
bc7b4405
bcd07361
be981c02
3e31e028
bc8acc93
bd584505
bdf9a140
3dbd81e2
bd51acea
bd3da601
bc831235
bd42d28c
bd5fd894
bd525aac
bb38075f
bddc9a02
3c65a4bb
bd36ac3e
3d12044a
bcb4033a
bda2c788
bc4b0973
bd990a55
bde9b135
3e0d0c32
bbbe6dc9
3c730963
bab1302a
3e1295b6
3dcc40af
be10c1c1
bb0fc184
3cb1d724
3ddd00de
3c97e0fe
3cd765fd
bcdb0fd4
3d42567c
3e1e9d79
3bbc3b8d
3d19ccef
bd78cab0
3cfc4e16
bd14b585
3c22bcc2
3b206444
3ca8e14f
bd76851a
bd646742
3d2a0b1e
be11327f
3c60bd2c
3e239d06
3d55fd4d
bd3b38f5
3c8ce57a
bd7be440
be03480e
bd861679
3d97d5c1
bd003b9c
3c7b8a2e
bd832989
bdd3f2c5
3c581bc5
bc096d46
bd197e49
bd6afb54
3dcfa751
bacf9a91
be5dfbb4
3d3afc3c
bd6339db
3e415bcc
bd89e30e
3d1de55e
3d0d2189
bc30ed14
bcd9eb1d
39bcc378
bdd6816c
3d050cc0
bd27bb53
bd81be09
bd7def5c
bc401528
3d9d430e
bc1cf63d
3da1f25e
bcb90750
bdea7502
3dfdea3f
bdcb9caf
3c8877da
bc93c6b9
bb213045
3c3527e8
bcf58f2c
3d9aa423
be0480f6
bdf51def
bd5eedf9
bd072a01
bc50519a
bc28b17f
3bd6a5f0
be00d00f
be65f6b8
bcf13721
3c32062a
bd8f910e
bd02383b
3c31d1dc
bbaf372a
bd3b27db
3deb6e5e
3d0d18bf
bd0a93f6
bebb5237
bda78f02
bcf6176e
bc872073
be84554c
bc8de166
bc66fc5a
be051ffe
be69d148
bd718ebe
be6570d1
3e66635c
bce11b55
bbe65215
3d5ab42a
bd57ddfe
bd553d0b
3d7627b8
bdff54e5
3cc4935b
3b5c49db
bb2547cb
3dee40ba
bc45fb81
bc71ac07
bd2e6e3f
3d37731d
bd285074
3d0b1632
3dc58d5e
3d88dc5c
bda0f2f5
bd9efb3d
3d14c20e
3d7c80d2
3e2db6fe
bccdd312
bd615031
bd880b8b
bbfb9f51
3bb5d4cf
bdb8af4c
bb52bfda
3c84908c
3b9e9773
3c6c51b2
3cf7bc18
ba4308cf
bd1dfa82
bd659227
bd09c01f
bc8f7111
be1ec145
3ba11e53
bac8b26c
be12848d
bdf64cc8
bd0b3e0c
3d2d26b8
bd313533
be61da8e
3e000c28
bd3d34e8
3bc7bfe1
bd8ad39c
3d42572d
3dd9ef1f
3c984bda
bc8d4a44
3e0c2aa8
bd11401d
3d88d98b
be6209e0
be2f0b61
be7132a0
bd7d893b
bbb3bc41
3e41321f
be038796
bc669237
bd9edc17
3e116ea3
bca8fd3e
bd5606cc
3d225f4a
be46b214
3ced98bf
bc54f20a
be149881
bd13bf56
bc8f9c6e
3a0fb08e
bbe1f061
3d8846c6
be5b5994
bd31b8a1
bce084ae
3d276e83
bc647efc
be4ed52e
bc9f1543
3c065e9a
3d0765a6
beb267f9
bd122c40
3db93095
3d331780
bccafb75
3da5538e
bd9de4ce
3e6be874
bc00cdcc
bd3a4ceb
3c9fb5cd
bc0def34
3de7bfae
bb847c41
3dc2f1fd
bd5abd0e
3d2ae881
be812de3
bc8a9c27
3e77a2b5
bc27aaf4
bdffa3bf
3dc6b250
bc1cf2d8
3d5db16d
bc027f8c
3d639153
be4f198d
3ded4e31
3b82f6d2
bd216670
be110212
bd485df1
bd4dd4e1
3e517d62
bed03ca7
3d1f9bb5
3e43a81b
bd66dbca
3dd5258a
bdfab85a
bdbc8f3f
bd6f8371
be24b5b7
3ccee6d2
bd810910
bda48677
bd90c617
bea3444c
bd1af7c6
3cc4ebe7
3aae0202
3d8bb774
bc4806cf
bd5d145c
bd8764e1
bd1c485f
3dfdcfe8
3d4d35ac
3c7c8f0b
be504c68
3d3264d0
bbf4220c
be3d0054
3d242f54
bd43f852
bc7f94d1
3c9af908
bd75858a
bd06981b
3b2abdde
bd826bbc
3cf5d691
bc996f82
3d5ce450
bea2b4f0
3dda8525
3d1bbbcc
3e7564b0
bde3dca9
3c42c234
3d49b209
bc433835
3e7a7b64
bd4106db
3b43ccb5
3e0d37b8
bc16cacd
3e58244d
3d81f824
bd07c269
bdb7632f
3db5998c
be1da719
be0733b1
bb32d93c
3e22cc1d
bde81770
3e575615
3c6d3645
3c6b6523
3d681d6c
be9bbf12
bce3fee0
3ba00421
be266b9b
3cd8ef7b
bc7ce87d
bd3added
bdad6c10
3d1d9aa8
bad82ccf
3c5668a9
bc821d10
bd3a96d2
bd2da356
be10e508
ba436839
bda40b1b
3e1b69dc
be5a175b
3c7dcec6
be06175d
3a4a177c
bc105995
3d901866
bce99724
3d085a90
bd0323a2
bd6ae41c
bd59454d
be117240
3de8221b
bbad34f4
3d8bd6b0
bb4e012c
babad303
be844a37
3b54e3bc
bd0554c9
bd6a186a
be0bd516
3e1667b9
3deb5a05
bbb0e0b7
bce56524
3e71712b
bf0ee640
bbbcfbbc
bb8df18b
bd54e62b
be8d7ffd
3c97f5c1
3dc3e09f
bdb0c65e
be90d470
bcb91d88
be0ae771
3cf850af
bd828f0c
bdd7f49e
bdf6855c
3d8330cb
bccd5d9b
bca8378f
3d6e2c91
be55fdc4
bd03b02f
bc9b2a8e
bdf08a23
3d04a308
3d2c9e26
3cb0cc39
3c569b93
bb0c4af9
bd1621d3
3d0efb50
3debffd1
3d855f45
3dfa9885
be8390fc
3d1a8953
3d00b1f8
bba1a9f4
3d1b725a
bd76896b
bc31bf0e
bd3000f0
bcdfcebb
bccf1192
3a8ed73d
3d51c8f9
3dc0c0d6
3d5cd8c2
3e44ccdd
bdc56392
3e1e1ffa
bd002cd1
3e10f805
be0a0969
3d8f3b99
3d85b8e9
be4fcfa7
3dec7bac
3b61bb87
bcd38944
3db062b1
3dee6d4b
bb9e8b01
3de47c38
bdbe1206
3d2a16f8
3e174df6
be76b17e
be15b640
3d9af084
3dadb978
3d3e66be
3e551f81
3caa25fb
bc8946e0
bbd4d505
be99fd08
3cfe55d3
3ce66b7a
3e6a6549
3ccc4572
bdd422ec
3c97f778
3d50a1b7
bd60d65d
3e290534
bd29d974
bd460860
bbf323a5
bd44012d
3c67e60c
bdadc8d9
3d540aa7
3ca6ba38
be3cb304
bc607c3d
be3b014a
bd555b46
bd5f379c
3e44b2c4
3ddb9e90
bdae058e
bd81d0af
3d466f24
bce528c2
bd985783
3d31b0c2
bc9dfd11
bc097926
bd67d8d7
bc32d7ac
be7b3e36
3d9f160b
bb8f73fe
bc4dd0a0
be2b540a
3d8aba1a
3e0ca57d
be040161
bb094a6f
3ddf5a65
be89996c
be1e35cc
3c97c06e
3b5171ed
be3d40e3
3d0fceae
3ba9fb73
bdefcfe7
bd4625a3
3c4d07dc
bd13d10c
bcb6593b
3b14eb4f
bd7787af
bd95caec
3b737908
bdd95481
3b82e33f
3e0651bd
be9d1ac8
bd239089
3d3ce325
3cd3a5e1
bcb6edd3
3c743c5c
3da34d29
bccaf592
3cc877f5
3c46d42d
3d0ef292
3dad3fb1
3d8ac883
bd912b8e
be29d126
3cc7f4a4
bc8c7a62
be0f4237
bd649c03
bd820f86
3be43633
bcef0bbc
3d3f0716
3d83e210
3cbacf88
bd174dec
3de56ba3
bcce6528
3df0b091
be16ba36
3e19fe94
bda5d10f
3e1726a6
be4a2250
bd409b34
3d7289c0
bdea6384
3bc484a5
3cde60a4
bd1b832a
3e057e8c
3e1a959e
3aabc90a
be09591f
be446bf3
bc8f047a
3dfadcdc
bec0ad63
3c1b3a75
b9c1de31
bcfadd28
bcde3e48
3e1af0c1
bd8ea437
bc945afa
3cd26087
be4b6670
bcf98aed
bcbd3f60
3e11603c
3ce038ff
3db964fb
3c4805ac
3df1329f
be1e5769
3dff9cf8
3c817233
bbfa15f9
bd0ea9b4
bd323d11
baab8b43
3c9bc85f
bdd231ef
3d31afe8
bdd237f5
bd2aca39
be2cba04
bd49c37a
bd8a8a79
be053c0d
3e57d029
3d9b2956
bd4e969c
3bc28495
bd053b0a
be2b0d8a
3d83a8bc
bd1fb3b3
bd18ac14
3c93b4ac
bd5f7eb9
be917f1a
3d76536d
3de762f1
bcc170fe
bd826967
3e605eb2
bc39574a
3e0386e4
be4cf641
3d00d8d6
bdf83f00
3da33ac9
bcf998b3
bd42ec6c
be48f49e
ba6ea8b9
3e0b8bc9
3c05aba6
bccfef67
bd62d262
bd94eccb
bcb5a0f0
be0baf60
bc88e1c1
bd2cbda2
be0640b0
bdd6c80a
3c0d4f82
3d5be284
be8275f2
3e107575
bdceb94d
3da435cd
3b158f2f
3d0cc1ce
3dacd381
bc1746a0
3c406402
bb81e529
3c30da59
bc184f4f
bd1c21bc
3d0a588a
be78a4e4
bd156ccb
baff3000
bdae3521
3c9d979d
bd961c89
bd4df125
bd41ac5e
bd985d80
be347d48
3c99e798
bd812f52
bdae6353
bd4b4745
3d12d323
3c5f7f22
bd9e989f
bdd2d0d3
3e2ad7c5
bdd590f8
3dd39cd8
be33b22a
be273bcd
bd872ece
3c83b3bd
3c0367f5
3dd4a3ea
bb92c74c
bd6f2bed
be8f961a
be2fd65b
3cf0c819
3c63ace5
be2e2512
3d627d80
3cafa6b7
3d1fd2a7
bcdd4de2
3e0d0e3b
bd4a8a9a
3c91d731
3da1b84f
be5907df
3c7c8a3e
bd3cef92
bddb858d
3c749488
bd9cf038
bc8f9743
bd9ef5d6
be132ac1
3d2bb394
bb8a71e3
bbe0add8
babc38f3
bcecb486
bdd38577
bdad379d
3c1febfd
bd4d7bad
be0b4b95
bd1b5ee6
bdcff988
bd47d159
bd28afca
3e31f84f
bc5f849c
be144fa2
bd7cc241
3d3250bd
399ed840
be60685c
3db4983e
3c7b0f5f
37c6f0ab
3a54a4bd
bc32bc01
be8a3eb6
3d88346b
3e3080e5
3b4d987f
ba081ecd
3e21bc75
3e081645
3d86d3ae
3d11b1e5
3e87b855
3d2000d6
beebf4f7
3c04577e
bc6feea8
3e1fca2e
bc69e88b
bdcdec6d
be52d1b1
3d111f8a
bce67f9f
3d7854f1
bcc88162
bd5f8b79
3d0c65bc
be15eb26
3e954c16
3c4737fb
3c16ac0b
3d43bd2d
be3e82b6
bd18ca33
3cf8935a
bdf40190
3ce49ac4
3d9c7472
bd75c07b
3c5f9b7e
3cb8e7c2
bd914119
bd242727
3d9502cf
bebd26fc
be6f0b0b
3e2fa09e
3d1adfaa
bce14b2b
bd406eb6
bd05d8b7
bd62e114
3c90a58d
3c417a5d
bc95f7e2
bcb1d0c8
3b8e9b43
3e1de048
3da46fdb
be3f4a44
3d9655e9
3dbe1498
bd7d956e
3e3bf1bf
bce023af
3e7115b5
3d7e2611
bdcc6c0a
bdf901ab
3e37764d
bbe373b2
3d200019
bde0d9be
be85cdf2
be214818
be22e52a
be81e590
3e0157bf
be76ce13
be6b4a06
bd2faef8
3e087cb2
be070bda
bd09a7ad
3be4cbb3
be0a772e
bd0b7a3b
3d7e8bc6
3cff0366
bb1266f3
bb8c130d
bcae3d02
bd67d709
3e38a644
bd830e4f
be356b21
bc7da649
3e24bf13
3c5de84c
bd2d6229
bcbeef24
3cd5b977
bde71623
be422fe1
3d903957
be3d1e1e
3e859365
3c725be4
bdfcaaa0
b9f3b348
3ccdaf9a
be0bdeff
3d933bfa
be412c96
bd29b2df
bd239479
3d1456df
3d80f121
3d2563a6
3cfeac35
3d984bf1
3d02e5e0
3cfef8e5
be2adb5f
bd4c1d93
3db4d40a
bcca0259
3d165ed9
bc253e25
3b8650da
bd58c257
3c7e926b
bcd0b928
3d36291c
3c939f5e
3c030c54
baaec788
bd0629a3
3d099588
3d745f9c
bb37418c
bad46e7a
bd47a2a9
3de1a32c
bd2a395b
bb1339c5
3dd0deb2
3cd2b7af
3e7a402b
bdb47704
bdb8fd39
3cf33622
be85f687
3d92c0e4
be0fb313
bda0a7f7
bd305f3d
3d3f8970
bda9ec76
3c9012b3
3ca0626c
3c0cd9f5
bd2538ce
bd963368
bd5d1f9d
be9ec747
3d0a6ae9
3981284c
bb8a87a6
bd94113e
bd597c48
bcc5aac8
3cea2209
bd312a12
3cb77f30
3ba4465b
3d03778b
3d927e40
bdb536de
bc1044d6
be5ab142
3d7df7d1
be8c2c1e
3db8e335
3d6308b9
3bdb92c0
bda3354c
bdc7d584
bd9f6eb0
3e1436ca
bca05de8
ba0f3897
3bd03753
bd98dc9f
bc7d5527
be0b61c7
bd96b552
3d98c723
bd3d682f
be16acc1
3d22d4f1
3d0d2c57
be566cff
3d240d35
3de45eaa
be15e4a3
3ca8b803
3e2eeeed
bd8c1b56
bcf581bc
bd6c5eda
3e2c94f7
bcef335c
3db1fc58
3c535f7b
be7e2707
bdc9be7d
3de09f3e
3d079296
3a8093ed
bc92f3a6
bce829c9
be02cecb
be14bc74
3e1ccc11
bd7ccc1f
3e5b597a
3c3168ec
3d9e0c4d
3d267aa4
3ceb9f35
bd9cedcc
bb449fe6
bcda1f12
bb66175e
3e04b421
3ced4d44
3da28b73
3ae36a69
3d143b5e
3d81d0a0
bc877378
3ce6e03a
bd7d4256
bdb648c1
3d11a336
3b325c1d
3d544a72
bb714fcc
bddfbbd0
3ccda833
3c9fff6a
bde63912
bd86d068
3d805e16
bcebf995
bd6da407
bd568077
bc2a14af
bd0285b1
3cc4480d
3d18321d
bcce40af
3e1c5b02
3bd58e3c
bdb03295
3deaca84
bdbe1911
3e37fbf5
3c08455f
bcfc9ed8
bcdda9f8
be5465a0
3c59e1f0
be0b1959
bdea0873
3cd41ccf
bd9ee048
be8263cf
bcf225d5
3d242618
bd52f79d
bcffcf79
3e0af0d8
bd202df2
be1309da
3d91d5a6
39550dd1
3cfcc988
be87bb49
bc8497da
3d0b85f8
bcb9e73f
3b411d75
3d47787a
3d4bcfc5
3b13f2ec
3e1e76ca
bdc559c0
ba34b534
bcd0324f
3db55556
be359505
bbcfcfd8
bd2508e3
3c09e12f
3db04587
3d18c250
bcc33e7b
3ba97b34
39809a20
bd75baa3
3d3ab9d8
3e0dc519
be7164cf
3d0e8866
bd1f40ae
3d834925
be0ca00a
be1459c3
bce8af9b
3d686e0e
bd57ece7
3c237e4b
bd957c8f
bd8e14c9
bd46cc78
3e133e43
be063764
bd656636
bd17a133
3da78aff
3b27be81
3dccf935
3c94f22f
bb01ecdd
be09de5d
3d99d565
bd122b4c
bb2f8e33
bc6891da
3c9235f4
bd29a663
bd8c2233
3e4d9e85
bdf17341
3e210af2
bccdea2c
3d04019d
bd26cce1
bd0c743e
bdcd08d6
3d3f5370
bdb8c7ed
3c9454a1
3e846624
3c4b7a77
3e43d90b
3bc4b6a3
bd057a5d
bcd9853d
3c0f53d1
3cb8c476
3d86324e
bde57eeb
bcc9f47a
bccf26e7
bd38239f
3da03c01
3d26fba3
3d978e98
3d6cf4b6
3c4a6233
3e1a3142
bd87ff1d
3bb550d3
3cfdfd9b
be152a80
3d27649f
bda26d2c
bd8e0c8c
bc1b5dd8
3cbf3f9e
3e0ea65a
bd3f3283
be20a7f3
3c37437a
bd5bb148
3d06255c
3e159146
3c2d73f6
3da6d150
be71ca17
bcff480b
be35b9c8
3b061b39
3c9a3ade
3c44a091
bdbc724c
bcbe3087
bd3c08df
3c75fd9d
bccc446d
3d4d2c8f
be058bae
bdedeba0
3d3fc5e0
3bd86478
bcaacee8
bce7694d
bd1d48d4
bd4a30d0
bd2f83f5
3d1691b8
3e0765dc
3d240d83
bd60f9c9
bce955bc
3da87650
bd7d2074
be56a189
3e3381ce
be7b20bb
3d908809
3cd500ec
3c5343c5
3e0224ca
3d25213b
3dbcf64c
3e67aa7f
3d039dca
bbc93ea4
3bd03715
3cca28ac
be91108d
bdb3e166
bb7a5fa6
3dcd323f
3c4c600d
bdb9c94e
be1c3c9b
3e7e8651
be6f2590
3ccc7e96
3da64964
bd235d25
bd24898a
bcfd7430
bd15fa2e
3cc60d45
3cf5a15f
bcba4d20
3d20a2eb
bcc8737b
3d10d745
be41992e
3d507303
3e7caeb4
3be1ca18
3d269571
3d02b048
3cdfb750
bdbe0848
bb8cadde
3dbb5054
bd2426ed
3e32c19a
bc2def54
bdcba2d9
bc733a28
bc037493
be205063
3b1675e7
bde349ef
3c97aec1
3e3280dc
3c325d9a
bdce406d
3e0dab87
bccb1393
3e48faa6
bce2bc98
bc41c792
3e04be2b
3b33add3
3d25dd26
bd4138e0
bc3a1e61
be21dee1
be14cfc1
be0fed17
3e033926
3e969d30
3dd8ea6f
be80af75
bd798926
3a46d7ea
be01832f
bcd4294e
bd815949
bd1f0f60
bd82e1d5
bc77c6f2
3df6880b
3c98d02a
be853c85
3bc5f54b
bcd3c9e5
3e4a14e6
bd1ac8b0
bd001f20
3e37b27b
be643858
3cdbd0e2
3c59dd65
be0a36c3
3ba1d81f
3cd7dbd7
bbe716c5
3c820666
3ca350c9
bd998c6a
bd64c021
3d99dbff
beaecc47
be1fb777
be076dac
3ac6a2df
bd71d9f8
3ca8c6d4
bd34d37a
bc07ce86
3cfa80c3
bd3142f8
3d3ff127
3d54bfba
bd2a06d1
3ce71c3f
3c9d984c
be5a6557
3d6d799b
3d969ae5
bda2574d
3e1788de
3b60b45c
3dafcab4
3dcb4ac4
3e05b4ec
bda2de1b
3db6bc22
bb5be6df
bd529699
bd892851
bd1d302a
be309ce7
bd95f24e
3daa7e25
3e381694
be36abc7
be2c353a
3e00ddb0
3de7b3ce
bdf927aa
b92536a8
3c9047d9
3d2ed015
bb7caa6a
bda1a749
3d4a814d
bce66e9f
bcd961ea
3dc00b99
bd1b6a92
3e517a23
bc037347
bec62407
3e2c9c19
3d30b19a
bcd209d4
bc77cf16
3bb8f99f
3b5d57aa
be49354c
bda3b217
bca99918
bcc6f301
3d990e54
3c3cd4f9
be36678b
bd1137f0
bd939e1d
3b8e6892
3db32582
bda284ca
bd8f211f
bd4e8042
bcf372ed
bb8f0fbb
3c70dd36
bc606e25
3e15b83a
3c602bf2
bd36b3b9
3d0a3c0b
3d2550d3
3d763edb
3cb81f29
3d93a860
3cc456c9
3e09874b
3c339069
bc948727
3e7054f9
3d9c0552
bdcf58c5
bd470e92
bd39749d
3ddd3097
bd65f5d6
b8ac97eb
3cc440dd
be035522
3cbaeee0
3d1d147f
3cea6adf
3d820923
3d7588a5
bde258f5
3dd36c5c
bd7ee09f
bd439c01
3e30d2e8
be6217e5
3e133cc1
3d5ce4d3
3cf45b73
bd14c108
bd0ce5e2
3cd59b8f
bcaf2071
3ca9b559
bd70d590
bcd09875
3d1dc473
be1c5442
bd56289b
3d566284
bd8d68e9
3b9cfcb0
be62c48f
bc470b8f
bc9fb9ab
bd089677
bc9e68fd
3d529123
bd31ed98
bcf71f2a
3db02428
3cc6cea5
bdb0fff6
bddcc194
3e8888a0
be1ebdc6
3d1569b8
bdc65ab7
3d9b1922
be065dfc
bd1e1699
bdcc2fa8
bd3cd25f
3bf9cd39
bd85609c
bc01311a
beaf154c
be30c2a8
bd4db0c9
be55e42f
3de10f19
bcbc64d7
be80b456
3d5d264b
3db4007c
3dbde5da
bd949d1e
3dc0ef64
39131dc7
3cb48654
3e11fa40
3d1f3d4d
bd3a9b3f
3cb9d8de
bcd4dbac
3cd614f8
3e1d4ee0
3b8c7aeb
bcf77b6b
3d0dd5d8
3cf6a15c
3c6ac391
bd336bdb
bcc27623
bd890edd
3e0f2715
be096fe8
bd9122ed
bddd5931
bceb2a5c
3d06cc4c
bd302a86
bd2e0afe
bd18fae1
be07bf31
3dede4ff
be9412a2
bd10ff28
bd034695
3cf424a3
bc9d5e84
bd67ff37
3cf88a66
3e3ed94f
bccfa4de
3ccd6caf
bda124e7
3c47f634
3dfc58c4
bc763796
3e173924
bcb50592
3caa38f1
3d85677f
bde4d8f2
3b9464ee
bc018b6f
3d66c28e
bd22bfd2
bd347c74
3dc611e4
3becc260
3ce44b71
3e72624d
3ddd5ed8
3c9235c9
3dbb02cc
3b7ad792
bdbaa6a0
3d8f482e
bde57695
3db43962
bd7d598b
bc2670a4
3dc2492b
bd1565b6
bd259b16
3ca90d67
bc6d3698
3aee7a81
3d3bde24
3dcdf0ca
bd6d26ae
bd39fc24
bd4bdd50
bda17e0f
3d997119
bd276e8f
bd5ec10f
bc42488e
bc65d68e
bd23d3dd
3d17f888
3b55200d
bd201397
3bf93de3
bc72bd38
bce1345f
3d59672d
ba54324f
bd0dad75
be089460
3dc1a3d8
be292e85
3c765e39
bc549950
3db9c4b8
bcc81e18
3d9bd92d
be2b939c
bdadde1f
bd6a8ffa
3d07341d
3a154fae
bd48d7e8
3c348e4c
be712496
bdfe85eb
bd1b5be8
bd988ca8
39abeb90
3ddb6e8e
bd81c23d
3e38f6f1
3d540f1c
be253586
bd391c36
3c9b147a
3d8e2f1d
3ca48947
bd106818
bd8a57a2
bbfa63ef
bcc44cf8
3e022d9e
bd069138
bc962998
3a77dba6
3de36884
bd3e2fe1
3ded566d
3cb350bc
bd3257c6
bd817813
bb5cad6a
3db0ee6a
3d2a50c7
3e0d2750
bd873689
bd87826e
3ca4693f
3ccaabde
3d1bdb00
bd94a71d
bdc5c8cc
3e53e30c
be917ee2
bc8afaa3
3dac1aa6
bc8a3948
bdeab8bb
3dd003c1
3d0910c6
bcefae63
bcd139f6
bc916a23
bc6a1069
3d1526b7
3d244ca6
bccf57cd
3e052b94
3daa0f37
3e1d1584
3d8f21b3
bdd06c61
3d80ff62
bafb85d1
bb88e7de
3ceac3e1
bcc70c19
3d1e5583
bd14c7fd
bd884c09
3e0db74e
3e051b94
bd8a55cb
3dfdbfb7
bd30f8c4
be78984c
bc99eae9
bd86ee4f
3e6bdceb
3e1553d6
bd4f4212
bcb3cb66
be125ccb
3d99452b
3ddbac73
be0c25f1
bd6dbede
3de12e8d
3cc2363a
bd8399c6
3b8a62a2
bd8e29e8
bcec2159
3b4ece6b
be439002
3d0123e8
3e1884ac
3c5a3908
bbd0860a
3c7e3a17
3b63b5bc
3c29de8b
3c9fa2db
3bb97021
3de4765c
3dbc9631
bd93eb70
bd96b2a8
be54c31d
3e553a24
3cafadd2
3de46221
3c368ebc
3e7aa03e
bc6493ca
3e03c9fd
bdea974e
be02520d
bdcdbf2e
bd0abe13
bd4a1f02
bca21b85
3c70ceed
bd05d171
bccbd500
be1771b9
bc2f05f1
bdda57a0
3cd4829e
bd93f4ea
3c4cab76
3da5d415
be1bd543
bd00017b
3d97369a
3dc15cf8
3c2830cd
3da7f8fc
3d98bddf
bd2bc0ec
bd10a440
3e508aa1
bd2d5552
3db9baa2
bd3d3556
3d9bff6e
bbe62fce
3d83b7bf
bd1ab746
3d08e6af
bd1f3fa4
bd12ecfb
bcf3b093
3d972354
3e14907b
be1cae9e
bc97c127
3c89e3c8
be1b77d8
bd0b01dc
bd7e1e71
be569ffd
3d3c478b
bed4be32
bd065d96
3e18ef17
bd67414e
3db05afb
3e46131b
3b63e462
be6ffc93
bd56e42d
3c335aed
3e1a350b
bcea5459
3d763c45
bc1536ff
3dea3da0
bd9b7a48
3d74773d
bd74bb10
bda91003
3e462565
be187cc9
bc5b836c
bcfa5ddb
bce38e9a
3e691836
bcacd04d
bd310fd8
bd81a398
3d443b8f
bc5300e9
3df1f0be
bd337d93
bd616517
bd607a44
bdecb4dc
bc5d2e46
3c68ab2c
bd8219a0
3dc29262
be1fecf1
3e2bedd3
bdd12607
3d127f20
3cfb284d
3e2cab39
3df44337
bd1e783a
3c6a9fe8
3b9fc9cb
3c84aa77
bcca2e76
be20ff5b
bd2fc778
be07279e
bd7a428b
bcdee1ec
bdb06e6f
3bf40a1a
bd5557e5
3b1ac787
bcd69dbd
bd290190
bab0fcfd
bd8a4929
3da12528
3d2ea078
3e49703b
3dc65efb
3e048a5a
3d59a643
3e5d8242
3ce46064
3e05c135
3daf2b19
be0b089b
be30eeb0
3e5430b5
3d169804
bce0e7a2
be80135c
3d26ddd9
be4afab2
bcce31c2
3dc8f96d
bcdacae9
3db845a1
bdddd259
3b959689
3dc8ebbe
bdde0732
3cba4cf5
3c4243dc
3dac15b1
bd74a7a8
bd2e47ea
bbeceaca
bd39550e
bd261144
3e584e71
bc9f468a
be2db3f9
bd3da9f5
bd9fb510
bdcd73d1
3e2168e0
bd2ddd53
bd58d975
3ba3ab74
bd66afd5
3cbb8088
bcd76647
bd124cea
be5ed5b5
3d732494
bbc375e6
be85a4ed
bd158407
bd185d4d
bd2e11ae
3dc542cb
bd651d81
bd19ea55
bd44c06c
bc549975
3b803773
3dff57e4
3cb3303e
bd825689
bd4e79b7
bd156f67
3e4a23a8
3d71504e
3e0171eb
3c4f6d45
3e125d84
bd4032b2
3d93146b
3c1fbe3c
bd7cfecc
3da6be50
bd7e7463
be05bd14
3d23733c
bd1b46cc
be0e464a
bd419cae
3d71e16d
bd7e20de
be4b35d5
bc4eac8c
3d9def45
3c76b2a9
3e1a3cb8
bdfc561c
bdaf3382
3e607c8a
3c17435a
bd8ba38d
3ea586a9
bdd90b30
bc72230c
bda085ac
bda1e36a
bccebc12
bd2603d7
3d1e8ec4
bd0772da
3d0e9447
bca6489c
bd201465
bd963a48
be57ff77
be375cb9
be4e7ed2
bc0bdf41
bcee4ee4
be1dbcde
3cc00a8e
bc92cbce
bd8babe5
bce091d8
bdab9a53
bd040ed2
bd94c4b1
3b628719
be400b86
be13837b
3d5e9772
3d0196b0
3d288cd1
3df1c1f5
3ceeded7
3e45c2e7
bd64f2bb
3dc00e48
be82e812
be153a05
bd3c4f33
bd726844
bd86da8a
3be8b214
bca8a82c
bda17d87
bdc529af
3d6beb9c
3d3fcbd6
be3f32a1
3d1ea7b9
bc187f11
bd9898d2
bc0e5712
3c0589bf
bd0ad57a
3c1ee8e0
3d62b26f
bd706d6f
bd8600ec
bd37022a
3d96381f
ba88e59a
3d8fc449
3c4bafb8
3c9eea5b
3b8c99c2
3c9ce488
bd1b351d
3bae7bd9
3cf47c8a
3cde15a3
bc3ac4f7
3db79d1c
bcc1b605
bc757aad
bded2ece
bcc90e58
bdff7f6c
bcc380e0
3c404651
be0ac733
3dfb0ee4
3a8bb6fd
bc9f8337
bda4a6f5
bd0c4d2e
bd3ef392
3d345d32
bc2e838a
bdbe931d
bcfc9ea6
bbd3c59f
3e2e219f
bc92cafb
3d4dc40b
bc61e14b
3e1d1edc
bb44f665
3dae6a67
3d7bf2b8
be4bc4d0
3e6463a3
3e211887
bcacd0a6
b9fbbe35
bd091626
3e1c718d
bcd16f84
3c0a89ba
3d914843
be1468ea
bd6db0ae
be55704c
3d2926d4
3d8f17a9
bcc2d88e
3d02e04b
3c7723ce
be25ac9b
bbcc62b2
3dc20e54
bdcb7505
3df955f7
3e02a193
3dc9158d
bcceeae6
3d3c8e00
be09ca55
3b7d3352
bc785346
bd8d2d89
bc2ff29c
3c014be9
bd9795bf
bdef02a3
be6e8a8c
bd508eec
3cf4709e
bc2afa86
bc1b8657
bd5af941
bd80e0ef
3cd48dcf
3d17404d
bcc4ac51
3bd47b55
bc5ec3f5
3cacb577
be0b2d16
be0625f2
3da6af82
bd09405d
bde1abf6
be0a0310
bd78c2e1
bd840fb6
3e1a15af
bd30b27a
bdae94df
bb8b1138
bd534cec
3dbd4241
3c085b64
bdf7d90e
bd2ad0ec
bd00ea04
3e32bd5f
3e39503d
be1d970c
3e35e942
bcf33f47
3d37ee1a
bc9c77a6
3d944c8e
3dbc7eaf
bd2a5e2c
3debab7c
3c80fe8f
bd3b1ed0
bd66e2be
3d0db047
bca8f3d2
bd705b8a
bb82461d
3d558140
bd4c3b36
3d378ad4
3ca881e9
3cd76bbd
bd494054
bc861321
3c4a146a
be84f539
3e0cdfde
bca99299
bc85b34f
bd83bb1b
bd87a7d2
bcda85b7
3c2024d4
3c9288be
3ccb6552
bd2ec78e
3c92d697
3de6e17c
bd341068
be09b550
bd29d7e0
3cd1320b
3e0f3018
3bf80f66
3ccb6d84
bd10cc43
3c8fce2a
3e603f61
bd4c707e
3e671847
3dba151b
bbbcf7c1
3de00dec
bd1f6db5
3d1f48f8
3db6fd62
3d19284a
3b484e7f
bd1bfb38
3dab4b3e
bc7902a2
3ac95afc
3e071cd3
3db1c47e
3ca76cb9
3d9bb53d
bbf6674b
bdaaa6a1
3d8461ae
3da98def
bda00c14
be3b77d9
bd4ddc12
3de48f4c
bcee6acd
3e546040
3c6f1d7a
3d708f0d
bce987d3
3d04f8ac
3cb2cfbe
bd2670b0
bb733813
bd49bd2a
bd2cbf9d
3d1fa149
3d492685
bdbc0f7d
bdea874e
3c2f32c5
bb08e5aa
3cc354ea
bc27dbd6
bc6037c5
bbc80884
3ce3cf3d
3da4f114
be1a85b9
3ae5538e
bc3e3510
bcdb8752
bcb1fadf
bdea1072
3df2974f
bda68425
3c85f9d5
bdbe464a
3cf57354
3dbdf33f
bbc502a5
3ccce463
bd3106ef
bc75ea91
3a6259ba
3d5219a2
3cb4fef2
bd124c42
bd9ca877
3db94f3f
3d4839d2
bd56809b
be0e0e72
3c8a2637
3d905b1a
bdd4b6dc
3ce7a6b9
bd7e3d21
bd98f3c3
bd027805
3d366ee5
3cee6281
3c91ce0b
bca51aca
3dde0a4b
bc72f68a
3d73fbb5
bd656e2d
3dd3cffa
be8614fb
3db40a09
bb8fc5de
bd6bfee2
bd61fbe4
bd2c681d
bdced7c5
bdb6444c
3e1d0a82
be24e4e3
bd3953ad
3d077dff
3d4a8603
3d10e49f
3c963bf8
3aedfa1d
3df53308
be55f11f
bd56310c
3e09472a
bd23322b
bd5e0346
3b894161
bd1a35bc
3d307eea
bd686822
3c39e6ea
bddf3ebd
3e11e626
3dea22a4
3cbce447
3df305e8
3d941312
3cec264c
bb411b81
3cc93841
3e29f6d7
3d003114
3d95dcd6
bcd40d5c
bce73516
bd3b58a6
bd31ad21
bdf37c30
3d6b0fdf
bd812bde
bd591d6f
3d8313b8
3c9bd60f
ba886e78
3da4a272
be21625e
bc3ff6f6
bb958c69
bce51d53
bdcb925b
be08bb08
3d76d318
3a8c5c8c
bc2cd6ba
bc522642
3d3d3346
bdd51fdc
bcf45b79
3cb5bdb2
bb25d11f
bcda76a8
bd29e04a
be00012e
3db23648
3d3d41a7
3ba80497
bd79dbe8
3c84165d
3b12be92
bd36fc39
bd49a78b
3c9de2e1
3e0e5e83
bca8418c
bccf3cf7
bd3c7f2c
bde296fb
3daec20e
3d033b4a
3de1d585
be310729
3e1419c5
be1fec7f
3df6a99e
3d6bd3d0
3d160a3b
3d25b7d7
3dd5613d
bcd525a6
ba169526
3d0b5f68
bd9204ce
bcc131d5
bba178cc
3dd05ae3
3e53887f
bc7a7fb6
3db9ab79
3d8b7afc
3e0d7cc9
bdcb1449
bd556eb7
3daaddd4
bc0df436
3d12043d
bdaaf899
bd638746
bc9112a5
bc8f83bc
3dcc3b53
3cc0db60
3e11dd77
bd9c7dd1
bd2fb964
be788cfe
3deb9487
3cffb875
3d0ce99b
3c3cc499
3c960c42
bda9f106
bcaaa9a0
3d78c7f6
be4bdd4c
3cad7dee
bd039b0e
bdd48d70
3bfb9f06
bc67530a
3d5c0dd1
bd335dc2
bebdaca1
bc0b597f
bd4549c5
bcdf2b87
3d77da8f
3e27f27f
3cba168e
3d25fc91
bd041d4a
bb351ebf
bb34efe5
3e23ccf0
3e4d5faa
3cb4296a
3e2e41a0
3d5b6718
3d9ffdd5
bc6f0947
bd01c323
3ddf0631
3e2c2fe5
3d8862e2
bccfc745
bcdf621d
3df94a12
bd1ca493
bce1ece0
3ce9aed4
bcadb8d6
bcc952bf
3d3e76b6
bc8000f7
bd0772a4
3d50d07e
3d6b41cb
3ab94bbb
be1aff1c
3aa189b9
3d45533e
3d8ad550
3e10072b
bd867d61
3dd747ed
3d231190
3e1e00e6
bdb1e60e
bd481459
3d26ad51
bd004cdf
bd24f129
bd9fc15b
be07ce52
bc357db4
be346f8f
3c4afc97
bca26cc9
3d27ac77
bd3a0b6c
3c90e9f7
bd3c2c62
3d19200e
3d5b92d3
bcbc7a24
bc3efcb6
3dd3476d
bd8d4f63
3e0e3610
3ddb679b
3da51284
3d014e88
3e110918
bdd09001
3d26f7d4
3a1d7893
3d941490
bdf4400d
bdb15e04
bcfa96df
bd07bfc2
bd071a5a
bd3730b3
3cb0091a
bd5770c2
3dd3cfd6
3d7fafbe
3e0aa0ba
bd840691
3cf789e5
3dbfd5db
bcc9f615
3c861dab
bd37eedd
3dbc02f7
bcb1d9b8
3e1dc61d
bd8b0c62
bd843c82
bd0f69c2
3e0db612
bbcc0c60
bd5c3d11
bbefb31a
3dad15ba
bde6505d
3ad97f89
bcec85c7
3c8d9d8d
3c56c351
bc6cebb9
bdf2c6e0
bde17830
bd164090
bdb0f743
3da2135f
3d196458
bdd6b082
bd065bdd
bbc73d54
3c94712e
bd599cdc
3d701e22
bcffff19
bad2cd96
bd2a8dd8
3c937865
bc974709
bd3b6d4f
3d8b4079
bd58e2fc
bd0b2129
3e111be6
bc976b7a
3e970a24
bd07957d
3dc7fa5d
3db976f0
bab8dc0c
bd4a1fa8
3cad8de5
3dfd7d7c
3de02cc5
3d7a76da
bcd3b2b5
bc53a631
be33a7e7
3c71b6b7
3db94940
3d4ccf94
3c4826d2
bd9500ae
3d94b366
3d2196be
3e1d092e
3c98f296
3dc95182
3e63c061
3bc2bacb
bdb54133
3d8dbaa2
3aa6fb97
bd8eeb65
3d44bb4a
3d9bb250
bccc68a3
bd08d6de
bd428f90
bd350622
bd543609
bd6d2bbf
3ae43f75
3db60496
bd457770
be0ecc22
be84eb47
bcaa7596
bc94062d
bda31b3c
3d24c4bc
bd1c27de
bd84aa5e
bc2c8b28
bb8b0a33
3b42a167
bd179083
3db4247d
3cc11123
bde73e74
3cccb83d
3db1a9f4
bd316b84
3c4930c6
bde9d613
3e73ffe9
3e2b2ef8
3e5aa71a
be323b82
bcde44ff
3cc27e27
3cddb006
3d8a8f2f
3d18a7aa
3e1c91fb
bd43478e
bdf796ac
3da66f36
3e1b5209
bcf2422d
bd42de4a
3ca2e112
bd726925
3cb57641
3e1a04ec
3d520a8d
bc0dfd00
3db8604b
bcbd4cb5
3b8b4f11
bc82c797
3ca0509f
3c8bfdde
3c307fa8
bd0ade9d
3e3b597b
3cece42a
3e716c64
bce5515d
3ad30c8c
3d104047
bd3efcc8
bd90c7fe
bdcdc989
3dd3fcb1
bcb1c9b0
3cbf781c
3c811e22
bde5ab95
bd068c10
bd967c2c
3d4b2b0c
3dd756d4
be052058
bd27d2b9
3e2f01cc
3c2c2402
bdd7a1f3
3db039ab
bd0333fa
3e4d7338
bcfa9103
bd2e17c9
3e056312
bda1ad9d
3cdff0be
3c809cbc
3e267d55
3d7ecb2f
3d6fede5
3cdeaf9a
3c3af848
3c455492
3e86863d
bd759aef
bd26503e
bce8cc6b
3e056487
3c75f9f3
bca18749
bd820366
bd8d5ab4
3ca9122e
3dd33cfa
bd3cfde0
3cba0273
3dae2a72
3e2a2e9f
3de76842
be4d664f
bd56c8d4
3d156815
be651634
3dbd68cc
3dea74d4
be2f5cb6
bd1bae2c
3cfef022
3db4bd4c
bd421679
bd1794ff
3c9108e5
bd89e3cf
baede346
3de63563
bd1cd239
bec06cfb
bc1cf54f
bd148303
be09d5bb
bd19a5e3
bd4aef6f
bbcb7f19
bd695159
3de63e5e
3c54c16c
bd8becf8
bd027d6e
bc5221d1
3caf30c5
bd442268
be05957a
3c7f099d
be843019
bd3095ce
3e5b6e3b
3d1b5400
bd9cd656
be0d47b0
bc6dfe3c
bd618b2c
bd6a6c31
3e2f6845
3bb855a9
bd9c4664
3d244478
bce0a0de
3c9993ea
3d426f97
bb6373e0
3cdd9a59
bc78d324
bd29a9f0
3d1197a0
3d9c910d
3e7741a4
3c4689c8
bdf515b5
3d5cde9d
bcadbbff
bd7d3ba6
3df6600f
3d2524cc
3d350f8b
bd064602
bdaa880a
be1c06c5
3e70acf9
bd59aafb
3ba4b352
bd4df5a4
bba88b73
3d0671d0
bc8671c5
3e13bde4
bdc11006
3ccd13e1
bd012741
bc3692f3
bcf27b93
3c677c93
3e2c72ce
3b7da634
bd8c7ef1
3c80bdaa
3e198ec3
3c163bf6
bbbce796
3e1c7747
bcaefe1d
bd10a47e
bd092a97
bc7753f1
be2c0fe1
be114765
be195d3c
bd4a9594
3e96ee64
3dffeba0
bd28322c
3e1db6d9
bd5e340d
3de95745
3e78aa29
bd922116
bd52a51d
bbd8d79c
3bee588c
bc81ed4c
3d13ae74
bd1201de
3ea75b0f
3c80ce9a
3d830640
bd636b7a
3d847cc7
bd764c4c
3dbc4ae8
3d04aa59
bd50dc28
bd00bf74
bc2c6ebd
bd370718
3ced3236
3cbd86c3
bc2fbea7
bd5dfe3b
3deee99c
3d912366
3d0bffd7
bb3de2fe
bd6f0a5a
bd7f1a83
3df5c44b
bccff7cd
3c4520c0
be945637
bd24ea4a
3ca8c3a1
3d6861b9
bd078cb7
bd23b429
38cef572
bd20ef27
3d0919bd
bc95b525
bcc5d9f7
3d3763c5
bd424c02
3d87ef5f
bca55add
bd5268a4
3de99d67
bcab875e
bda9398a
3e79e0ba
bd1da099
be28b43c
bce1f3c4
3d013e80
bd232bb5
3c5c4cfe
bdcfcec8
bc1da109
3d4defb3
3d77acd5
bc61f98c
3db16dba
3e25b03e
bc968909
3c3c155b
3e0bc363
bd5bd141
bd3584c9
bd4324a1
bd365755
3ce39e9f
bd8c44e2
bd917173
bd678473
bceef352
bd51b825
bcabdd17
bd445556
bd2a98cc
bdc74e7e
be1013ba
3e39ac29
39aa4067
3cc95ad6
bce9198c
3c525728
be6f7794
bd074d9e
bccdec2e
3ca41947
3dd2516b
3cdce50b
3d2b1a92
3d16e8d9
b7d9dab2
bd3e1164
3d471972
bd89485a
3d267bce
be142463
bd620773
3df13996
3df99b64
bc7f8e85
3e024639
3b11ce78
bc9b7d79
be4560b2
bd44b274
3cf196d4
bcf1f8a2
3db93e57
bc2aa4c4
bde588b5
be1fe9bf
3dd064e0
3e042d1e
3e597be9
3b84473a
bca06936
bd224cbb
3cc43f0d
bd271b60
3cb90173
3d049034
3df11309
bd876197
3d2b9932
bd467c7c
3e49e566
bda20521
3d91517f
be1ffafd
bdad955b
ba4636d4
3d52243d
3c91078c
3dde8af4
3d5a568b
bb91a27c
3cfe7a90
3dca6dfa
bcbb32d4
bd635fcf
bca59f81
bc0283e0
bd9228f6
bb066ecf
bc630980
3e005ab4
be1c1eee
bc79c9b5
bc5cb6b6
3cc013da
bcb5277e
bc20a6be
bd0822fe
3bd941e2
bd198a51
3d9334a5
bd803335
bd61c7d6
bdfa52ad
3d826c17
3db2350e
bc3ed5dd
bd7b2652
3dcc0393
bcc07521
3da1dbde
bd2469d5
3d94451e
bcd577a7
3d3bd15a
bd19205a
bcd606d4
be251420
bd13d1fb
3d8004bb
3e03b82e
3d8b06bf
3e2ccdee
3d919ed1
bd96b510
3dba224f
3e4f5e0c
bd5e4779
3c57fa61
bb313d40
3cdc06bc
3c63401b
3c3c7853
be569b49
bdbc0a9d
bd6d94d7
3da36f99
3cb4506b
bb8f1880
bccab4cb
bdff873c
bdae4bc5
3e0961ca
bd48f27f
bbed1131
bc5ec44f
bd559ac8
bda7df1e
bcfbad78
3d2f9d4c
bc590aaf
bd1f9b6c
3cacc0e4
3de6b84d
bd0d9741
bd03103b
3d4193c3
3dc5411b
bdfa7936
3bda7f1b
bdd38750
3c89d105
3c1a863b
3d982789
bc42bd21
bc7d2f78
ba97b385
3cc7e547
bd7bc612
bdd262bc
be0702a6
bc82aa3c
3debcea5
3d80265b
3d0b4502
bdde0dea
bd5eb7c1
3e49568a
3e3097f7
bdc13bf5
bd3e607e
bbdec709
bb88e874
3c1f4dc9
3de328f1
3de6402f
3e0acab4
3cde4c90
be12cc18
bccb65bc
3d984e54
bcecbfaf
bc1bbda0
3b91271e
bd86171e
bd0d8235
3d402e27
bd5549ac
3d0d54f4
bd72a217
3db06813
3c4aa7f2
3da524e1
bcbf15e3
bc3d8e3b
3cddfbc6
bbdd8b4d
3b13df41
3d692ef2
bd7043da
3e43fed0
be0b0824
bd7ebe8c
bcde1293
3c72c6fb
3d28ea19
bd36af38
bd620421
3cb91dde
3d7efcc5
bdbf2c04
bbf88c20
3cc843af
3d3ba893
3de00cfd
bda54897
3c4d026c
3aae6247
3e5a67f9
ba80e908
bbfadd46
bd79e0d7
bc166698
be4fea2a
3e24195c
bc2f0594
bc6e22b8
bdc78fd9
bdc092cc
3d166223
bd2ed2f0
bd88c4c4
3de2fe62
3e2ba6b9
3ddb31c2
3d8d37a0
3e05baba
bd8d952a
bb13c41f
bc43dddd
bbc314e7
3d14fce9
3db07d04
be24e637
bdb53dee
bc907aec
be16f6d6
3d1f3d11
bb631e8d
bc3d2e65
bdb6b15b
bd95994b
3e33a71e
bd0addb5
3a8bc7fc
3cc75cbe
bcfda29a
bcad3a6d
3ce622b1
3b2130ee
bdcd3450
bda861d0
3d3367e5
bda53955
3ca31d89
3ceea808
3dd84471
bcb1141e
be034375
3ca0ef39
bdcc75be
3caad0fa
bcc18d31
3db1be87
bc5e0aaf
be09cecf
bd4a3441
bcc2c566
be71fa36
bdeca010
bdea3301
3ceffc1d
bda95949
3d1e61e2
3d193911
bdcf13ab
3db1bccc
3e4856be
3d054314
bddfd451
bda8f123
bc2eb429
bda9ec16
bcc1370a
bcd15e5b
3cc717d6
3d7e792a
bd4965ab
bc4570f4
bd51dcef
3e417aca
bdc27013
3c8ba092
3dc1609d
be0d9964
baf89a42
3e531175
bcc098c8
3e073ce0
3e6dfec9
bd80d1f5
3d114430
3c804c91
3d3ee140
3a346d99
3d12044b
bc977323
bd0b2645
3ddcaf70
bd8c799a
3d46249b
be0abc10
3b2e46e9
bd68208c
bd3dd4c8
bc8c22a9
bd3de11f
bbda926a
3c2b85f2
3e6be069
3be341c5
bd0083d6
bda624b6
3d47cb69
3e295709
bd7619b0
bcb53d2e
3c46ed3d
bcde535d
3d844b55
3e8ec107
3e11063c
3b563901
bdea2273
3df1ecfe
3cfdde79
ba803811
bcbe3300
bd8feea4
3e0f03f6
bd9b1415
bc8d112a
3de22a70
3de06856
be191094
bd99317d
bd8e0d74
bd891f14
3b92f277
3dc2365a
bb1c9058
3c8d28c3
bd61c087
bd84d70f
bde044de
bcd2c84c
bc25776b
bca6df09
bd27a6d4
bcbdc680
3d547863
bdb25538
3e2e5f57
bb2f1597
bc6b9c1c
3c809941
bcca0424
3c87dc71
3c72dec8
3e4988f3
be1714ff
bd901258
bb6b0723
3d03c68f
3c5d7411
bd30e7b6
3e0498a8
3dadf3b6
be216466
3cdc2fe1
bcaa9b92
bd4d72a0
3d12a2fa
3d63b0f1
3caf22fa
3e5237f1
bd09b48d
3d261706
be70ad92
bdde0589
bb9f7663
3d290135
3db80342
3d56d1b9
3d15a929
3d906178
3e06b2c5
3b265478
3e727bd6
3c97a953
3bef90b2
b99b7f01
bb7cc21e
bcec3fa3
bd972244
be03e947
be4fdded
bd4d444d
3e2a6335
3aee0ac8
bd59bc3c
3d0ceac3
3dd252c0
3e13a734
be4c1ffa
3c2fcf2f
3ca1570f
bd66061f
3e986bc8
3e64cfbe
bd567dca
bd5079bf
3d148d91
3e0ffe9e
bd63fec9
bca32728
bc020cd3
bcd6af88
3ddc82c3
3d2f1f9f
be2ccb7c
bd0880ac
bd3a033d
bcd82894
be2683dc
bcb3d1f8
bd85abfe
bd4b28a3
bca7ea49
3e2f1e27
bd88031e
bd24a8e8
be8e6d69
bde03cd1
3d73ebc7
bcf179ef
3d889e70
3e29f1a7
3e485c5a
3d2d2a73
3df999d0
3da0468e
3dbfeb1d
bd572f40
3c428468
bc9475b4
b99702ba
3dc247b1
be1c0451
3e06f0f8
be37cdf5
bde09d86
3d30a7bd
3e19e2ef
be103a39
3e021190
bd2c930b
3ca751e8
bd4bb01c
3eba334e
3d5d9b9a
bd1be7a0
bd2a0045
3d9c4296
bae919b0
3c042da0
bdef4a2e
3d05b354
3d58e88a
bd482c49
bd252be4
bd8db4c3
3e46bf73
bd4590ca
bd1af207
bd39e39e
bb0708e2
3dc5059b
be36f06c
3dd862c2
3b0d9c9d
bd1d7cc1
bd15b2d9
bdae309d
bd3d42a3
bc86e9da
3ddb6df8
3da83377
be569339
3d10de17
be4a616e
bc259403
3d6a2c12
be3336cf
3d1271f2
3d72212e
3cfb5f06
bd31cc78
be057c74
be7c0739
3de285d7
3c990aa9
bd9fe1f4
3e1089e3
3e623276
bcce9430
3e489b6e
bd966f4f
3e6618da
3da3271e
bd3cfdeb
bcda4b30
be7ac951
bd0adccb
3dfd799b
be3a4984
be0f36b1
3a9b57f5
3d9889b7
3cfbfda6
bdd44728
bcf77236
bc19ca66
3d7ef852
3d9ef79e
bcbed977
3d1d17e9
3d824bea
3e231b4a
3dd49aca
bd8c22b4
3b2ed538
3def9971
3de69fd0
bd710173
bb2871b6
bc1cf7e4
3bfdbd12
3d6e43ca
be187328
be22460e
be1c0b9c
bd39cec3
bd6448d6
bde6b1bc
bd417114
bd42a3d2
bd4f6f7a
3ca8b06f
3dcf212b
3e352aab
bd7d6d41
bd01e544
3bd9985f
3aa6190f
3cfda730
bc844a90
3d02d42e
3e974ad3
3db0064b
3d53c457
3e00efb3
3e3bc024
bc7227be
3d3936ab
3b229050
3cc1c2d0
3de6c06b
3c013307
3e2711a5
bbfd21f0
3b69c52f
39a38a4e
3e781839
bd38b600
3d76e905
3e742a31
bd214ced
bd7c8991
3e33bf65
bb51e6f4
3ca86507
bd4d667c
3d50a29d
bd5667de
bd5f7157
be09d274
bd1744ca
3cef3b3a
bce3d0dc
3ca0dece
bd85d5dc
3e1552f8
3ccd8c1f
3c269b8f
bad1c764
bc27b0b4
3d9474f8
be24afa4
3c8e6baf
bd9a991d
bdde8ca1
bd8b82c6
bd0e288b
ba960dfa
3d0b860f
be1f3f6e
3db9bb04
3d7275ab
3cd94891
be1d3030
bc4a6eda
bd158a48
be3c8c86
bd34d6a2
bd1a4606
bcaaccac
3d055828
bd87b4c2
bc144f7f
3da76755
bcd50a80
bc81de06
3d53f819
3dea6e0c
bd5b8850
3d41015a
3c173f9b
3e8182c2
3d444516
3b81a8b0
bd03ffa0
be079e95
bd66cf6f
bc262e9e
3d4fdcb2
3e34f373
bd6601c6
3c8095d5
3c70c37e
be61eb41
ba8d637d
bd400952
3d385b65
3de06464
bd0cbe22
3e56226d
bda5ff8f
3e3ee2c1
3c90170d
3b7892e7
3c65ed26
3da38a2c
3db25fbd
3bdf86ac
3be5cca6
bca9ccd4
3cdfb290
3d160a54
be77f641
ba28aa08
be0ae6df
bc21c977
bcf23672
bd6146d2
bc9dcdc5
bd8070d6
bb0337af
bcff53d0
3e1af586
3e31a464
bd83f8c8
bd8967c8
bc63e9ad
bbb108aa
3e3b3606
3d561eb1
bdfc2c59
3e832ac7
3df75988
3d1c66ac
3e19a5eb
3e4fc2b4
bd710e48
3e453bef
bc3552cd
3be33e0d
be47fa65
be0ff6a1
3dc06c47
3d9c2115
3d20d616
bc7463e1
3ec5790a
be277b6f
3c168a0f
3e8d9d2c
bdfb17d4
bd15dc36
3e448356
bd92447b
bd2f2869
be2f70fe
3d83ec97
bd2a44f8
bcbba410
bd0a85cc
bd3a4e95
3de95be6
bd1864d4
bcfc4495
be3c55fd
3e094578
bc5f2d6d
bcfb4ec7
3cb8b417
bd55ac72
3d697b88
bda87ee7
3de2e447
bdbc8540
bc7f1c38
bd890868
bd417bcd
3c821819
3bb3c963
be40a63b
3e0f9897
bdcae323
bd3e8ccb
be7a24e1
bcdebca5
bc84aa73
bd846823
3c7adbdb
3d065d5f
3bcef62e
3d11768c
be88414e
bd312403
bd81be1c
bd0c25d4
3dddf64a
bbad5c92
3e0ab4b1
3d603694
3d9d652e
3e182bbc
3e82ef6b
bd6a2530
bd6e5449
bd5f5446
be83d10d
3d2093da
3dbf0037
bd3d3edf
3d1b20a9
bbee8803
bdc157f8
3c61089d
3c139860
3d7cd915
bc6cd0a2
3e094824
3d202cd5
bbb18634
3e0ba2e6
bc70b6be
3e27da82
3cfbe5cb
3ad8072e
3c7e3e40
3dd3ba32
bd84f806
bd6770ca
3cf0362f
3d2aabf0
3c88adc9
3dc95251
bd9de030
bb8a61db
bc9b8da6
bd8fa0d3
bd07c5bd
bdba19f7
3955f09c
bc813949
bcf67f8e
3c066573
39869156
3d079715
bc2bbd3e
bd8db549
3d63b1ae
3db6b522
3d6264a5
bddcb0bd
be121e8e
3dea708a
3d2fff0c
b98db3f2
3cc45442
3e3cc0b3
bd7ca275
3c958af5
bced4fa4
3ca517eb
bd26eb3b
3d56148e
3c846315
bd004ef8
3bbc160a
3ccf28cb
3e5a6d02
3cdda695
3c0c33b9
3e2f37dc
bcb716fa
bc4714b7
3e974252
bd59d72c
3cd4bd37
bd8e50d7
3e47807e
bda5a87a
bbf8af01
bb773383
3c6c3126
3d9e225f
3c1e94eb
bd8975e7
be094ed9
3e6b2118
bd1093b4
3d392744
bcb6182b
bc3e9bc5
bd3086eb
3c12bd34
bcda26db
be08fd7a
be3ea299
bd907df7
bc93c548
3d5bc90a
bd572e28
bd815011
3da4f86f
bc658f61
bb168ad3
be82fcd0
bd15bd04
bce5707c
be3b89ad
3d16aa17
bdb27fbb
bce0319e
bd0f8103
be399d9f
3d5ef9ae
3de8136b
bd2545d3
bd1873e3
3c7841c4
3e3fb7a1
bdc89ed3
3d93515e
3d9687db
3e96bf18
3dc8467e
bd3c88e7
3cdd8844
be154237
bce8f5e3
bcaa800c
bdf3361f
be5268b8
3c1e0db3
ba816955
3d26659b
bdbd7c4a
bcb2a555
bd0705a5
3e67e27f
bdb9f7f9
bcfddb34
3db9a5d8
bd44258a
3e89fae9
3e341631
bdca60c5
bd405657
bc43332e
3b99329f
bd8e9bd4
3d2c8333
bd1e9e3f
3c261b5b
3c62bc2c
3d87aa16
be023d94
bd40779b
bcaed411
bd248284
3d1c5889
b8ec3232
bd06e399
bd54c731
bb5d798b
3d71a0ba
bd0f4659
bd18fca4
bef0fe1f
bd59e9c1
3d977809
3d53b65b
be450b77
bce1ea3f
3d7234e5
3d94fc02
be8b1f9d
3dca56c9
3d9e9e2a
bd45bcb2
3c64a2c7
bd100e78
bd5bea6b
3d926e3a
bcd78fe4
3da955ab
be3112ca
be176a4b
bcedac59
3d421d48
be35d592
be808579
bc3728e8
3d702644
3d36801f
3e965c02
be6f6aaf
bd3d5745
3ad2a8a5
3e81a6a2
bc64ab1d
bbf8f831
3d65f7fe
3d1b4a12
3d9c9bbe
bd6d7f4d
3d86640b
3bc94a7f
3e759b98
bd4f5c6b
3d3d27c0
bd02f224
bd095099
3e9d8c12
bea4cabd
3e21c6b9
bd0af08d
be0b2ce9
bd3c340e
3d3cecf9
3d527ae9
bc62f07c
bd29f952
3dcd0ac0
bd37f979
bd10ca4c
be716e45
bd16222c
be3072d5
be4abf39
3ca2ffe6
3e2ca7cb
3ae02e98
bcbf7c71
beba6b34
be7f3822
3e3bee2b
3cad77e3
bc16f96d
3df18e7e
3e44af93
bd8219d0
3e9f4de7
3cd0c122
3e3c6608
3ddd7048
bd2c81fc
3c65df20
be1ee8c2
3c65401c
3e8ba6b7
3e12f477
3c9efad2
3c0eee79
bddf7880
bccba5df
3e82b9f0
3da90316
bca7313f
3db737ee
3d422c24
3c8cbdef
bdcd113b
3dddcd98
3e003339
bda56623
3bcfb370
bc91709d
3d09a1a8
bc4df8eb
bcecf1a2
bd5cd572
bcbe2bbc
3c243eec
bd8a8dea
3d988a05
bd9c8b32
3e34f56a
3d54ddd1
3c928910
bdfdcece
bd560e54
bcf04d5a
3cb4f260
bce06adb
be4870dd
3d951766
bc2b7ddb
be3c6a6f
3e0e4a85
bd975c6e
3d94d7c6
bcbcd5a0
be4143b3
be084067
3c00da8b
bc8e5577
3c5619a1
3d931905
3cf9b53c
bdfdec22
bd500f01
bd458227
3dbd158d
bd0955fb
bd153a6f
be773737
3d8e34c1
be22d1f6
3e3549de
3c8970e0
bbef299c
bd9983d9
be3c0dfd
bd4accd2
be4d390c
bd2b280a
3cd71203
bdbd8f8f
bd047b18
bda99c43
bcc96a6b
ba0a97a3
bcd9ffae
bdce73f3
bd39e0c8
3e3c4ac6
bd184939
3e23b24d
3c0cb865
bd18412c
bd134462
bceb7e11
3dae7e23
3dbb3a20
bd8792e6
3d8ab180
be74f3cd
bd807b95
399885dd
bd157832
3c276cc8
3ded74df
be090565
3e028fc4
bd358b79
bdc58e92
3c87a020
bb96e745
bd1990e3
3cd7803a
be1703e9
bc183c3a
3cae0fe9
3e852da4
bcbc006b
3dd3bf10
bc0f356f
bd84fb80
3e575c44
3d336651
bdfb1eb2
bc41cd1f
3da411d1
bde8a75c
3ba61b4a
bd8f1eaf
bd1be025
bd49a60f
bd528606
3e8f2475
3d04226e
3dc46f47
3c38e834
be4b73d4
3c7d4be0
3e30fa8c
bd2e0e0d
bca70b50
3d689ab2
bd287d46
bd313363
3e24f73a
3da0b82d
3e4666d3
bda29187
bdd0f408
bc057602
3d541d33
3ce6a86e
3d5076f5
bcfea7f3
3c8f5904
bca782ca
bdeec259
3d1713e6
3da8daec
bd7268b4
3ba3bc1b
bc7cc861
3b9dfbbf
bd2dc29c
bcd820fa
3c47df5e
bca1e51b
be5f9be5
bd52ecb8
bd565e9b
3c0229be
bd98156b
3ddd371c
3df83cfa
3b1eb095
be274b58
bc8ee4da
3da3e5f4
3e083936
3da8bec4
3ddc6193
3c4b5e52
3dc6696b
bd2413d1
3cabcd87
3d8bc532
3d81dd12
3d1ac4a5
be2c6acb
3e208974
bcf7f333
3e8904e3
3c3c8c11
bd2a237d
3e3f610d
bc266b6e
bd943579
bce3ee50
bd04e8cb
3c998d73
3c2afe4a
3cbcac62
3bac2959
3cd0d931
bce2659b
bced8560
3d26f3ec
3c497c56
3dd25495
bdcefd9d
3cd0243d
bd05f1f2
bc839ddf
3d0a079d
3d044ffa
bdfa6c2b
3e167cf4
bcb2ebd9
3dd9bedd
be03e461
bc9e5746
3beade8f
bd01ce14
bbfba010
3dc55234
3da42487
bdbb6cf8
bc21b7f9
be11a776
3c93e510
3cecd47f
3c9fdf15
3d11253a
3d4f78c1
3bc2d241
3cfcca3e
bbd05f9b
3d87191d
3e58b1c9
bd772716
3d4faa29
bd128e0a
be87720a
3de6266f
3e003f2e
3da82da0
3de7f8b0
3da14603
bcc9008e
bca14bdb
bda4bb0e
3d1749fb
3da59ffb
bcb4073b
3e503afc
bc408381
bdae5548
38b2505e
3d5bbc11
3dab2b19
3b0d37f0
3d8a29e6
3e537f3b
bd96d497
3ceefff2
3e0b82b3
3c98fb76
3d279324
3d045670
bd19f7f5
3bb05f17
bdb7b6c1
3ae9ab8f
bd2237ce
3ca86e8c
3cecff3a
be4b75d7
bc2a1fd7
3e826c44
bd0bf545
3bfff0c7
3d22c65d
bcf325d8
bc23bd28
3cafc35a
bc40d6ff
3d13d1f1
be9a1cdc
3cb4c034
bdae9dd8
bdfc461d
3cd5abf2
3de63f46
bc5c5d3e
3e3af616
bde6bbbb
3d7d8733
bdb00238
3e151c00
3d803ecb
3daebe8e
be62980b
3d4ff0c3
3d267c12
bd131d08
3d0e45d2
3d1f5f15
3d9a949f
be6b3ef1
3da90419
bd3ceeda
3e5bb811
bb2a1c53
3dd00f93
3d7f2e8b
3db17a9f
bd4ed613
bcd1ea32
3d29e491
3d056e27
bc48ebee
bc360ea5
bd72ce74
bb096ca2
3e6d2ae6
bd0918c6
3d9952ea
bd1c2bca
3e81d54d
3d607ae6
3dd09fb0
3bf59b51
bc7f73ee
bccc92a3
3aca067d
be0db904
bdd775bc
be20b0d9
3d64ba78
bdbf8b61
bc6fd442
3ccc9892
3d40127d
bd5987d8
3e18375e
3b020d52
b907406f
3d199e02
bd8f32a8
bd9d0a3b
3d074cd5
3c501362
bd0d4c28
3d45f63d
bd65576a
3ccbff2c
3dab9b9c
3cbf6c81
be24aacf
bd1c5898
bc155f58
bd37b742
3bd878ce
3e29ea2d
3e4f1c00
3dc5bbbb
3d1f5f7c
3dd191d0
bd56f176
bd212c24
be55c6c7
bac8d641
3e4700f3
bdf00cde
3e453d37
3cf55ee4
be0a66fa
3cf06807
bdaa2d0d
3dbc6310
3e11bf35
3ddf1f64
bc115eeb
bcf8d95d
3d9d7012
bda04833
3dfff1a1
3d4357b5
bde52073
bb08c0f7
3d6d9532
be2f4847
3cb8ee36
3c162112
ba8467cc
3c2a2895
bd3e6456
be1e2c72
bdc95302
3db688a5
bcc575dd
3c625e9f
bce29f81
3d059a93
bdbf7476
3c474bad
bcd55c86
bdc84cf5
bd0bc257
bcb0c9bd
bdbfea72
be6f2908
3df1e7b4
3d4df59a
3e5c5bbb
be71a7fd
3d85700b
bdb8ccca
bc9596ff
3d78c4fc
3dd90978
3d1820fa
3dd94475
bd4009b3
3b61ba86
bd2b7c0b
3db5c71b
bd77d542
3d259098
3d239a22
bd9b2963
3e8b16fd
bd8417e0
3e158a16
bd904594
bdd7ae60
bc242eef
be2a60c2
be86a0e7
bd339d39
3cb8f64e
bde7ce1e
bd750bd8
3d057c05
3e271b7f
3d24fe39
bc5cac9e
bcf9368c
3e2c05fe
3dc551be
3e148119
3cbcb288
3bd61ee1
3d0945b4
bcdb3e28
3d2b342d
3df28e51
bdb23297
3db210a6
bd85e8bb
3c889cf0
3c9c3ad3
3ccbca58
bcbdeda7
3ce59122
be2c16d1
3d164953
3b11a723
bb6d310c
bc1b1393
3db10d58
3e398a30
bd42dc6d
3e391c44
bb88d864
3cd6be9c
3dae3410
bd61258f
3e43f310
bc448ad3
3bf32dda
3b3bc0b5
bd4f392f
3daecafb
3def6d8b
bd335b7d
3c1b4a97
3e35f69d
bcc95e7e
bd325c0f
be45e954
bcd45b99
3e2bd763
be0db59a
3c4e42d6
bd120d14
ba6fba4c
bd2096a5
bd1f3538
3dc8486e
3e8b2235
be58d740
bd09289b
bd8db01c
bd83e61a
bdcd9583
3e0352a0
bd0690ae
bd80e486
3c9e7b76
3d06ba0a
be85f714
bc9fe698
3c8e9627
bd8c7379
bc925d09
bdfeeb3b
3d7681d2
bea1c4f4
3da29125
3c98c74f
3b8ce29f
bd9de53a
bd1de200
bd419bda
3c4690d9
3c920cb8
3cdde8d3
3e3d3663
bafbec16
bcd42ba5
be027b4f
bea61f57
3d36288c
3d0548c1
3d2ab63a
3dc96eca
bd11a091
bcd3a9fd
3e0082b9
3e137ebb
bdc991ce
bdff21e6
bd258192
bd009ebd
3e74ebaf
bd038253
bc021678
be4228eb
3e1c928a
bde11249
3eb4ef30
3bb3e822
3d5c735b
be0f78ff
bcbf9af9
bda6ebfd
bd2ace67
3e041c6e
bd516a9d
3d0abcf7
be8301fa
bca38f77
bceb6d73
3df0ad2a
bd5c4950
3d5cbae5
bd66002f
3d1e9cab
3df9ad5e
3e821f20
bb57e4be
3d22fece
bd610b8c
bd6be39f
3cf4ef35
3e7a1596
3db7222c
bd066a5b
bdd5a68f
3cb5d6f8
3dd48dac
3d159bfd
bd823f91
3ddd6455
3cb0afbc
3d86182f
3cabd840
bd96e9bd
bd89bed6
3da2b8ce
3e104595
bd26185d
3db66253
3c8dcc88
bb9c19b1
bad8a2e3
bd8af8fa
bd2639d1
bd217f2d
3d9b4267
bcc330f9
3c7b4873
bd6b3235
3ed0c9c1
bd0fb709
bd0a19a6
be0b137d
bc4fcc4d
3ce50369
bd3b4673
3a984f90
3e37d856
3bc7d8b3
bd9399d8
bcd0068a
bcc48d48
bd25573b
3d744bfb
3c8931e2
3c55e675
3dabbab6
3e503465
3c88e1fc
bc0cb055
3dfcf3b9
bc2f250e
bd7f76bc
bcf503b2
bd488278
3e830014
be3d298b
bc8a45c9
3d03e62e
bd850593
bd306246
ba91196e
3dc997fc
bdf569f6
bc0b973f
3bf0a855
3a6c4a8f
bdca4108
bba994ef
bc82f988
3cb621e2
bd22028b
3d2280f3
bc7f5592
bce0c03e
be1a37c9
bd046aca
3e244c8e
3cdb3a79
be64eb9c
3d7001eb
bda0a358
bc4da3ac
3d5ea233
bb71006f
3d810d6f
be3e4427
bd58ef31
3d292aaf
3b47ae4e
3c345c04
be020761
bdeb59e4
bd6187d0
bb3a2b09
bd439b4f
3d395b24
3e11886d
bc88e71a
3d6fde59
bdc61263
3b93f229
bd9d168a
3c572dfd
bd055ad3
bdc7545d
3cf3c02f
bd0b8f5c
bd22ff5d
bd5422f2
bc46163a
bd9566d0
bd7bf1f3
bc462251
bc0c86bd
3d97b585
3d122016
bc547ce9
3c9458d4
bd48854c
be30b1f5
3ba60fe7
bdb1698c
bb34c8c0
be8e3a69
bb0e9313
bc81a825
bd00a31f
3cf97536
3cec8bee
bda3446e
3dd011d7
bcacfe20
3e0a6ef8
bda5f8a1
bdd29be2
bd145612
bc50b386
bcb57675
bbbeb286
3d07e409
3e387cc3
3cb8e8c7
3e00f8c8
bd217a5f
bcd03535
3d13409d
3d95366a
3c3c1d7d
bdbbc496
3dbe1c20
3bb8fb6e
bcb16b86
3ce7eeba
bd3a6da2
bd7eb397
3c904cd6
bd9fb083
3d4ffe75
bdb9a262
bd2a0386
be3b880e
3c9eba2d
3e20bed2
3d508066
bb4bf01e
bd426196
3e0a6b96
bd89a07f
bb451d19
bb69fa06
3defb876
3d88470f
3c75e08d
3cc84869
bdc3e02a
bd735688
bc01b46e
bcee6d65
3c121f2b
3d1cb732
bdda196d
3e13b29c
3de67442
bddc6a01
3d41ed1a
bc0f993c
3e018b76
3c46f1ef
bd4f3115
bc8e6514
bce09b44
befdebdb
3ca264ab
3d0e6a58
3dcd6fcb
be044716
3e04138e
be0062ef
bd46a202
3da592c8
bd5ec3c2
bca91ba3
3cc51803
bc6e80d2
3d0a75ba
bdc0994d
bcdb7e4a
3d1fe5f6
bc51fb22
3d8c68c4
3e5ed8c1
bd99dddc
3dbbcfbd
be173f14
3d71d348
bdafef8a
bda2cdb0
be1c6c79
bdda2c12
3dc36c83
b9b89237
be0ec8f2
3dcc2b68
3d12bbf4
bdb469df
3d80ab10
bcbeaeda
3cd121fc
bd71377b
bc5a5fea
be5dc07f
bcb87025
3e12cbf6
3d91d268
3d9e82c3
bd22395b
bcd5631d
bbaf379c
bd32557f
3d08afa5
bdb3eebb
bdc457cb
3dfc971b
bdc18c9c
3d21f487
3d807555
3ce4dfab
3d3b38da
3e07039f
3d2e9c9f
bde43970
3c654886
3e2387d6
3bd84d69
3c9081f3
3d68cf82
3aa5acdc
bd1fa1ce
bcafe12b
3c314dcf
3deedc8b
3e17e3c8
3db58009
3cd9ae4e
bdbf0b92
bd545dbd
3e07bcf6
3e23ff3c
3d6bd2dc
3df2c570
3d9e6de8
bd58585a
bc81ffe9
bd12da92
bb8059a9
3d16f1f1
3d8fadeb
be0faaa0
3dc0b980
3d26f98a
3baa1a04
3cb1c0ba
3d3606f4
3d999ad5
3d95f7da
bcb826f3
3e1bd958
bc18caeb
bdaecf38
bc56538f
3d0c3e90
bc654911
3d8e952e
bc7b74a8
bc361643
3a8185fd
bb68564e
bd52589e
3d84c073
bc90ec77
bd413054
3d4aab6a
bcc9f673
be68d124
bd510ec6
3c89074f
3e293563
3c167b74
bcdfc433
3cfd5944
bd48f6ee
beaa18fc
bd92af18
bd238f4c
bd5c5270
bddb43c0
3d824696
be995550
3d168120
3cc8bd30
bdd59999
bdf3ba98
3db21b48
bdb95270
3de5f53b
3d108974
be02d97c
bc0b6597
3b588458
3dc3ffad
3cb92811
3e344ac5
bdf4c4e0
bdb6d3cf
3d20fe42
3e6e761a
3cadb471
3c0c26b1
3dd08c11
3e48f37f
3d5280d6
3d97e34e
3e37ec24
3d0a2a4b
be8b406a
3d11a386
bc4f391d
3b3e6c85
3d955cec
bcd507c2
3cf29ea3
bca9450c
3dd1c1d7
3d26afaa
3d0268b9
3cda84eb
bcbe2675
3cb3b128
bd73f275
3caf8e56
be239042
bd8ddef4
bd7314b7
bca94e39
bc446b8b
3e005ffc
bd28988b
3cba5b4b
3dc8bcd7
3e161938
bc1a34ae
bd237d7c
bc11941e
bd80ad8f
3d287662
bd03b81b
bc2024ef
3dc1179c
3d3ae50d
bc8ffde7
bcee6fa7
3e15f65f
3d6314f5
3ce1848f
3cad6396
3da8497a
3e1d8118
3e148593
3c342291
3dd53d2d
bb9dbd3d
3c901a6c
bbb32df4
3bcf0e80
bbb82fff
bcc32114
bda11291
bc64b9c5
be130eff
3d13b6cf
bdcf13fa
bc804a1f
3d368aa1
bde601ec
3d99d72c
3c81be82
3df2dc64
bcae5f5b
bcb2a447
bde8c4eb
3d95b924
3e294ba2
3c7da9c2
bd19842a
bd955576
bce0370e
3cba5a52
3aff53d5
bc4613fd
3c8cc41c
3d390da4
bdfec447
be54b2da
3e020b73
bcbb0c1c
bd14dc88
3e5848b1
3d266f93
bd8b774d
bd4e5a76
3bb3cb79
bd9c0bc9
3da7f627
3c5bc875
3c149c71
be4e6d29
3ca81612
3c4bfbb1
3e239bea
be1cb319
3c09493f
3d35edb2
3d04d1f5
bc694507
bd01feb2
3dbec4f2
be035ad8
bb6d9de2
3ca7f207
bdd51516
bd89e1b7
bd03e1de
3c81aeeb
be0bdec1
3d46a3f0
3dd2725c
bd8a220e
3d4da6f8
3c0789c4
3d6effdc
bcdc7200
bd54c648
3cd8004f
3d036cd4
bcb097df
3d079cb1
bd8596c0
bd590f43
bc9a1282
3c147e0f
3cd5cfb1
bcb31589
3e6e5e7b
3e15ce40
3ccf4845
bcb34d1e
bd1b24bb
bc45c838
bbefffd2
bd4c789c
be2dfcf7
bd196b48
3dee0dd1
be168eab
bc95d210
be07cebb
bd5be091
bcdafe7c
3da7d4ea
3dcbed55
3e247fcf
bce8e036
bdc449fc
bcda7468
3dbd607a
bca20c8e
bc1ff53a
3e24bd17
ba14cb99
bd74c14c
3dce722c
3ca46a44
bd887fa0
bc300cf9
3d2b374d
bc141c59
3daac75e
3d9e6fa8
bd5cda3a
3d1e011c
3dc93e7f
be0dde75
bbe3f832
3c9ad869
bd87e622
bce99303
3e0deff7
bda27ea8
be8cbfe0
3cf8d784
bd6b541a
bd723ab7
bbf39827
3b2223be
bd21781e
bd9db9ee
3df52c2f
bc96749b
3e1b51d7
bdd04460
3cf79b18
3d1cce5b
be496887
bcc52c62
3d024ec7
be63ef48
bcf5b081
3d1e8b8f
bd25dde8
3c564b62
bd588a19
3d80d181
be2f5f87
bdfabba3
bbed87e1
3d0e8815
be329bac
bbaa7bed
bc287aa4
bd56edfa
bb3ee8f8
bcffa593
3e258aab
bd7a2b00
bd9aba89
3bb8d3a5
be02964c
bd57281b
3d994ddd
bd926916
bc427b28
3e3cd3a2
3d89fe46
bd5db6c6
bd5bd2ad
bd941adb
3d43f0b2
3b7c66d8
bcec6237
3c254b38
bd97bf71
bca81502
3beb8645
bd81342d
bd1042e9
3dee4575
3e27c996
bdc843dc
3d65d1cc
3d7665ed
bd080d6d
3c8ec287
bb817566
3d0c0e31
3d796432
3d9a35d8
bcb045c9
3c8d2626
3c6c226c
bd4cc753
bc354070
3cb78e17
3d66f5b1
3d808c0f
3d3d318a
38ceabb3
3d05e112
3ce00b33
bd39204c
be107b4b
bd5013c8
bc6cad68
3acad2c6
bd73d79e
3be49885
be07857a
bd5dcea6
bd91de2b
bd4d86fb
bdf5bfc4
3e352ce0
bb7a9640
bca1c5f5
3b36512b
3dc0b6c8
bd786475
bd126490
3dd5c0b2
3d1b0425
bd109ccd
3d9bfab7
bd9f6ada
bea28b94
bd78b5c0
3d94cf92
bcaff450
3db5a125
3de14bc9
bbdb9036
3d82e6d0
be26ef75
bd569128
bc69b754
3bc60f69
bca06a6c
bc8df49b
bd5f37ba
ba89eaec
bcd0dede
bca42144
bccb1846
bc4e056c
bd0b8b79
3e3e2396
bcb7ecf9
3c8cbba5
3d5650c9
ba5a8a0b
be6188e2
3df77e80
bd0516fa
bd98fd4b
bd62f386
3d46b644
3dd7a610
be6c782f
bd1c2bf8
3cb40234
bc0359ee
3c21b29a
be1eac30
3df57740
3d961853
bd23119b
3d91a492
bd547f03
3ddba912
bc048de1
bd13f6b8
bc34d8e1
3a5f4edc
3d4b5cdc
bd1b0e1e
bd1fdc1b
befcf38e
be237f89
3dfb0e85
3d2164ff
bd12c42f
3d68a7ad
3d9dbce1
3e0eea0d
bb2f0372
3d243377
bda28789
be35a814
3d2878ea
bcc06565
bd3eeb84
3d2bddc7
3c7e3eb1
bd91c883
3e0a7d33
3d1ef0c9
3d0462aa
3e0c33cd
3d90fac0
3e0f3e5a
3db370e4
bc93fd09
3ad7a559
bdb6ddb6
3e151150
3d0d9a85
be0bb2fe
3cc82490
bd971f15
bb67a4b8
bc9cb2ef
bc8cc64e
bc4a98f5
3c00ef55
3c77d063
3cfc192a
bd98e239
bbc80a91
bbfe7ac7
3c8bfa97
3ca976c3
bdd33767
3b877523
bb8a7680
bc549a13
bed008c5
bcc123d8
3d40eefb
bcf813e6
bc88c5ed
3dffcfff
3a8cb7d0
3e6914ce
3ce32502
3dfa7613
bd1ab39c
bd502e65
3d2ef781
3d0b7ca8
3d96d8a4
3cb55856
3c2696b7
3d5dbe0c
3cc5f7aa
3cf4bd24
3cc24e35
bc204781
bd07f200
3aa93215
bd76c1de
3d8dac4e
3e6b19ed
bd7d89ae
3deecafd
bd428b47
bb88b8ff
bd125932
bd3e2c9b
bde85102
bc38bd4e
3ca206c0
bd1ec723
bd975da8
bcc1b45f
3cba6fdf
3ce2dddb
3e05494f
3d8ae612
3cba4156
bd0ac68b
3d7bbb5a
3e279c0b
3de98b17
3e3e060a
bc86257e
bc84199f
3ce8dd72
bd51c5f3
3af62b45
bca615ea
3cefe789
bcbdb0ca
be640445
3bcfd10d
3d8e5f37
be8e2bac
bcc7f020
bc786937
3e4e2acd
bce86bac
bd845903
bd628630
3d18523e
beab540b
3d08ef52
3b9b2994
bd59c942
bd875eb7
bd63cfa7
3bd48c80
bde9f621
3df6ff53
bd3f6f2d
b5caf51a
bc5c6d19
bdde100d
bc8c0419
bdd074b0
be0505da
3c20c7b9
3ba2b3a4
bc7b87a5
3d0e5b71
3da5d3cc
3de98eca
bdaea9f7
bc694a8a
3da718e5
bdffbee8
be4517ce
3b72724e
3da8abe6
3d5235ef
bb359f75
3d13fd51
bd52bb03
bdc43f0f
bd3c0b28
bd399b7e
bd1874f1
bc421724
bd567885
3df461bd
bd6c5a7b
bdf872d9
3ccc3fa7
3d8a68ca
bcdaf6a6
bd3063cd
bd088612
3c8d9c89
bcc1dede
bd67e382
bdfe6f45
3dc33b38
be107537
bd43b9d8
3dd7ca75
3ca04332
bd26e0c0
bd81eb70
3db95655
bd3ae750
bd70ba09
3dbf5de6
bd5eabbd
bd50ec53
bcbb43c3
bb6af5ab
3c5897ae
bcef1be3
3c54627d
3db9ce15
3d08470b
3d9dfc0f
ba31e96f
bdfa871e
bdfc0905
3e1e39c8
3dcce31b
3e47941e
be1168cf
bd4efe5f
3e7cd8ab
bbffebbc
bd0c879b
3db24bfc
bd2c730d
bd93e77c
bd67a734
3df81fa0
bd06cce3
bde8cba9
bc3f439e
3e55c8c5
bd8e2138
3cd3105b
bdc8dfea
3e126ed4
bc23b60d
bdeee019
3d8f47bc
3d80ceb6
bc8d6906
bd0496ea
bd458f95
3c344164
bcc98f4a
bd40901c
bd5ae601
bd1e3d7f
bd0cc1bf
3e4dea8a
3ded0744
3b67f925
3c941c1e
bd080f14
bced4c3f
bc1ffee3
bd4890f6
bd0a1636
3d24d10e
bb81d872
bebde8ac
3e433fa4
bcaaa538
bdb5c295
3d48e9ea
bd8ed68c
bdd84f6e
bcfd8006
bc2dcfe8
3cb80f0d
bdbb423b
3d80630d
be30ede9
3d82b800
bd38b1b3
bd265479
3c2ca770
bcc10b5a
3cbea949
398b9d94
bd1df654
bd90e60c
3da2515e
3d76235b
3e5c41bd
bcfd50f5
3ce9173f
bce24002
3d59a096
bcaf8e0e
3e0bc52c
3d435dee
3cc39f8a
bd53a484
be2ab60b
3b9a6ac3
bce1e29e
bd9b9498
3c9eec2a
bda3b0be
bd0178d9
3b70ce50
bd9fbb48
3d0fe9bb
bd022e71
3be098d4
3bf1a299
bd5b9bee
3e0f0c2e
bd0f40d9
bea16d3a
bc649773
be38b15f
bc2964ba
3d87184d
bc7f2d20
3d21aeb1
3dac0aaa
bcedb437
3da888d9
bc13fdf9
3ce9d331
bd5de1b2
3de07e5b
3c796c1c
bd26584a
bc2c62f9
bd3779f8
bd23d656
3e140abb
bc7735e1
3d17c533
3c795d96
be3001f6
bd0d94f1
3dab5dc1
bced7a8c
bc12cf93
bd4fd5b0
3bddf0f7
3e161dbc
bd9eb1f9
3d16c141
3df46ba0
3ce27d93
bd701a38
3d629687
be077650
bc52917b
bbc55c37
3c90013e
3d195fda
bc948162
3d48435f
bd552de8
3e2ec082
bba14aa7
3da3c9d4
3d89579e
3d7d19d8
3ca06caf
3d60e48a
3d039843
bb181a39
3d74b3bc
bd55bd1b
bc99280e
bd1fa632
bd31c63f
3e03cd0c
3e0a5bad
be7f3138
bd76914e
bd19d1d6
bd293dc2
3d676ffe
bd5dbf51
bd4aa542
3cca8b02
3d15f390
be09e038
3e2a702d
bc6283df
bddf2658
3d11cc1e
be872c9d
be2dc592
b94ef2c9
be1724bf
3d0fa217
3dbe8018
bde3d723
bbc5972e
bdd736de
3e08533d
be5a0323
3c9c95cb
bc56f33c
bdb8abaa
3c48e0d0
3dd534ca
bd9d0225
bc61fd60
3d60fed3
3dc655c9
bd0d0e2a
3daeb2f7
3da96b48
3e27f50e
bda48846
3e14b3d6
3d305320
bcab7991
3cff2458
bdc71c79
bccea13b
3c413f68
3d0dbb9a
3cc43265
bdc17b79
bcfcef33
3d40b05d
be091aad
bd8544fb
bd35f9a5
3c7a4fc6
3d0dcfe7
3c8cbf8a
bde03bb2
bdc1472a
beb9cd02
3dd537c1
3c2ae78b
bcdb8d48
3e232e84
bc5e488e
bd1c9706
3ddee8b6
bde689f8
3e179ee5
bcbaa17e
3c914f67
3c9b7a2e
3e071a1a
bd94f17f
bd06d0f2
be17cb9e
bb880824
bd550e37
3da6d62d
3d8c379b
3dbed27e
3aa9667e
be50f15e
3bcaf132
bda9550c
3d679b63
be91dc52
3c8e5bea
3cf6297d
3db5e4ef
bd588e22
3c9c080d
3d7e4b2c
3c321ef3
bc2a71fb
3d8dded7
bd7de09e
39df8ce9
3c6828ea
3cc5f116
be3c07d8
3d0cd5b1
3df26667
bddab085
bd96c579
3cc8e97f
3db4d0ce
3d01da8a
3e4656a2
3e8b35ba
bdc19312
3cf4d361
bd116326
3cee63b8
3c856543
bb590d1a
bc84ddf7
bd200f29
bbde00c2
3d32badf
be9bcc75
bcbeae57
3cf6827c
bcd37642
3c8a3065
bc82436d
bc804871
3c973157
bb4457fa
3d68b6fa
3e710e66
bc89b90f
be23462a
bc8dee37
3d1950bb
be1c46d0
be7a3482
be080dbb
bcffee55
3db603f4
bdb3bedb
bd003118
3cf161b9
3dcdf09d
3dae672c
bd37b30a
bd109659
bc4002ba
be0b51ce
bcd2eda9
be37d961
3ca4deea
bd9df02f
3dbedbe9
3e2ec340
3df30196
bc0017f7
3dc8794d
bc08e053
3e0ba5d9
bde2ecca
bd3eeddd
3d1ce8b3
3d09eecf
bd1af287
3bf9f466
3db46a42
bd0e2711
bdf753b1
3cf9f2ea
bdb8f2e3
bd798379
3c374e22
3d187f31
3b9f64a9
3c9aaa40
3b3c7036
be808bb8
be19b114
bdfe5ab7
3dce007f
bccdb853
bd375ecf
be1310ec
bd394ddc
bcba45d0
3d47fc2e
bcf27925
3de58c6e
bd2921e9
bd103cfd
3bb93f53
3cf37703
3d94bf58
bd1f493b
3de38405
bc2e252f
3cdee5b3
3e3581bb
bd01c5bc
bddbaeb1
3a8efb3b
bebe8515
3ca7cb62
bbec183a
3e1ecb41
bc15844e
3cca326c
be08ef78
be116242
3c8f963c
3b5eb02e
3b67ccfd
3a2741ca
be21d0ce
3a3630d6
3d2889a6
bce42f9d
3c04fbca
3cf8541c
bd633c7f
3dce2936
3d67caf3
bd88d0bf
be25d1f0
bcf7570b
bd3c0315
3d8297d4
3dc49a2e
bc4282c5
bd08c16c
3c66d8e9
bde142ad
bddd8aa8
bcb0ac55
bc33b762
3d4bd455
3d44596f
bdfadcd0
3e4de097
bdfa70ab
3dc24d94
bcfdaf41
bb0df89e
3e873b16
bc2990c3
bca87a59
bd54f5fe
3c267fdb
be00c3ca
bd221b57
3c576fe1
bf0acdf6
bc3d4535
bd81ca52
be1e4346
be3f4e7d
3e1a3263
3d20ffc8
bc06ccbe
3da7b321
3d46049c
bdc67c0a
3b2b86bc
3e05e64c
bd4a6028
bd17a7e2
3e129b51
bd2798c8
3dabe356
3d57316f
bd880c38
3db8826e
bd225234
bd9e43ac
3dbc13de
3d6933ea
bc28c431
bd25a103
3dd2173b
3da13a1f
3cbcf912
bce64123
be72a79b
3cdfccf7
bcb0b684
3dd0483b
3b991ec4
bd0dec72
bd6e3ba5
3d6a86cd
3dc526b5
bd6e2a33
bd1180e8
3cee4c55
3d29098f
3ca3c928
be46068e
3decce24
bd2ac36e
badf962a
bd9d57da
3b933fc0
3e2587c3
bd2c11b8
bbc00e83
3d8dba33
3e1b21a3
3dc7927c
3c3c6948
3d70d2c0
bc965d24
bdee11fd
3c15e3b1
bce5dc86
3d127cd1
bc8ee777
bd3090b8
bdd938a1
3e3ceff4
bd716190
3cb9aedb
bd1fa272
3be1747d
bddde0ac
bcec04dd
bd55988f
3cfffdf1
be69154d
bdd30727
3d2212d9
bd2fb513
bd9ac333
3c2533f0
bea211a5
3da32247
3d0c6034
bcbc30d8
bda063db
3d40ef91
bcb80b48
3c41d6e5
3ddda3d9
3df3176e
bddf01b4
bd557f17
3c4c8277
3dc96bc6
bd521330
3dfea74e
bdc77b9e
bca59458
bdc8e98d
bd9145a1
3cc8cd04
bc9e16f9
bdcd1419
bb3ae357
be7f0a81
bd8a99c4
bde53e7c
bdf61f10
3ca5c7c9
bc390b0d
3e7433de
3d0c7faa
3b02d8c5
bd51ce15
3d2d4f9b
3cb10843
3b60207a
bd71a116
3d9569ee
3e403bc0
3d93efec
bdaeebea
bddb596a
3cff1983
3d5c81e2
bcb73474
bdc152b1
bc579c29
bdef98c7
bdcf0452
bd0422ff
bcb4befd
3d2bd984
bd68697a
bd2cfcd0
bd89eb0f
3dc01dea
3d89c657
baa5c20a
3cf4c39b
bdfd82fe
bd235404
bd23a39c
3c9f3f9a
bcbcd67a
be062020
bc519da2
3d16fc8a
3c262de2
be4bc564
3c6a81f9
3cb877f0
3ca30c30
bd417f90
be004f4a
3c0ecf49
bdcf660e
3dde3d0a
3d15b5b3
bcad20db
3cd3cb4a
bca13c2c
3c34b3b6
bdbc2189
3cb3de85
bdce2d95
3c6b93dd
3b85ef6e
3a10c826
bbca142b
bb3daee4
bc23c568
bda77b5e
3da681c3
3e043156
bbbe3872
3d0262f1
bca65acf
3d5dfcfc
3c863ab4
bd2d3396
3e6ec7f3
3d0c8345
bb68fc6c
3db9b268
3dc965c9
bd94d7d9
bc94fa04
be88b5dd
bd37fc12
3c671ea5
bd7dfe9f
bc977735
bcea4051
be118dd5
3e09eac0
bd700507
3d15fcb2
3d1d6ec4
bcad4712
3d3b53ed
3d5bcb42
bdb39a49
bd1b5c7a
3e6f75bb
bd658b23
bd458ffd
3e0bfc93
3cea42de
bda11a89
3d2906b4
bd70ccea
bde30a03
3e767012
bd7cb2d1
3c3103cd
be1bc165
3d1d6a4c
3e17740b
3d645648
bd1d4ff4
bb0d06b1
bba3422e
3bf15dd6
3db04171
3e2f865a
bd1a0905
3e789ed3
3c788574
3d13a8d7
3d71ae1e
bcb1dff6
bd02abe2
3c752fa9
3d31a5e4
bd26655d
3e08bbe7
bd628684
be72cb80
3e6d500c
be9cdb68
3e062db7
bdbc45f8
3e71021a
be13a5a5
3d0ee899
3bb58293
3ba1cc8d
3ca704b0
3d81ae7a
3d0aeb87
3d1bddc6
bcb87647
bcc70c33
3ad5e300
bd9b1932
be183e60
3e0dc683
bb66680a
bc61c4fb
bd2e2702
bdf569ad
bd9fe235
bdd0825d
ba59d39f
be21a8a6
3cf91c69
3c89a0e0
3d9003d1
be24a59f
bd380c07
3d08e2d6
be457728
bb8c3eda
be2cd3a0
3cf4e0bc
be415b41
bda92c08
bdab908a
bd404201
bd086373
ba747887
bcd70239
bc1d662d
bd0b6378
be8e4f98
bd29f46f
3e3fb048
bb80845a
bd9c4d7e
3c8753d6
3d0da898
3e86dfd6
be096949
3c39116e
3c69c01c
3e5198f7
bc2cd756
3c456a62
bca1c284
3b3c514f
be26bc95
bcf59b9c
bd593ede
3e800cce
bddeb2c4
3c255196
bd53023c
bed91c03
3e1870cd
bdde84f0
bd51f3d7
be1082f3
bda719a1
3bace603
3ddacf4a
bd1e1009
bd7fd93f
3e9136c7
3c88edcd
be16bfa3
3d9fee96
3de5fca4
bce0fd51
3e4f9447
bb864bea
be0c9cc9
bd1d6024
3da1e75f
3cdf0eb2
3dc250da
3bf2c3e7
3d3e4632
3e44d7dc
bc73a2cb
bc66b296
bdcb282b
bc349611
3d1b795b
3e011f4d
3d007887
bb6b1f45
bd1909b1
bd2c06f0
3d7c438e
3d8d3cfb
3c9f4971
3d7f5eaa
bce662e5
bd725da7
3c2206aa
bc16b35b
3bb39be5
bd10ca26
bc62cee8
3d984dd7
3c9fa9dd
3c965711
bdb27f86
3e1bacff
be929126
bdc64603
3dad5a83
3cda2728
3bd4e345
3d89cbba
be138048
bbc10915
bd9cef80
bd9175b9
bb4c846e
3c188b71
3d06b8b4
3e2ef7ca
3d469c18
bd7bb613
bec546ae
3b95d94b
3e0bbb31
bca17f6b
3ce7a81a
bce740ee
bd5fdb38
bdd5262d
bc77eeec
3c80c816
3e1b2e8e
bd334943
3cfdd8d2
bc47856a
bcbe446c
bc3eec14
bd97cd2d
bd4a2e66
be364d6f
bccc8645
3c9df056
bd09b12c
bc8f463a
3be0a8c8
3c35f3f2
3cc8cb5c
3c02269c
bd867916
bd171550
be9d2425
3df532f2
3d797d58
3cf71010
3d238771
bcf66bc2
bc05d188
3de32162
bda91227
3d3b381d
bce536e1
3e0d71b5
bd1c9466
be080d37
3e1b186d
bccadfd1
bde2398a
bd2cf25e
3d1b245d
3e18efd4
bbb4cead
3cc3c78d
bcb3673e
beb03660
bca388d7
bdaa152b
bda9fff5
be7f7785
be31fe2f
bcaed16a
3dda7370
bcc629d9
3ca8fc6b
3cd880ef
bd44dce5
be3e59fc
3dade9ef
3dee75ba
bd03accf
3e024f7c
bbb31476
be7249fc
3dee72fd
3e0c4c51
be130495
bd007303
3cd0cb24
bbccb47d
3d6a9091
3df9762a
3e3490a2
bdcd604a
3ba0b29a
bd089a77
3df3fbcd
bd41f874
bd0c028f
3c43ddf5
3b831e25
bd0b8e1f
3d644a5c
bd738556
bd8ca25a
3d2db722
bd25764a
3e629a85
bd3e9423
bc3ce95a
bd5e9e12
bd13f041
3d07a80f
3e25be33
bcbc7680
3da531ca
3d3fa097
bdf563b8
bdfb00f2
3d1eaa8d
bd340427
3d78c554
3e2635ea
bdc65550
bb25cc2c
be1604fc
3df76323
bdbb1e43
3bbec7ea
bd532dcb
3cc1eb19
3dad3bd1
bcec9fdf
bed86e4e
bc7bd4fe
bdb3215b
3cdef456
3c8a7be7
3e2b5d58
bdf08162
3e143e9d
bd96d885
bda474dc
bdbaa515
bcd8d4e5
3bc11a2e
bd8990f3
bbb33255
bc9cab48
be080938
3b075335
bdeaa3ed
bd85a710
bd925cb0
3bcf3b12
bdd6e960
bcc6e988
bd01ce5d
3ce1b020
bd5765ba
beb76b20
3d36aa10
bd914120
bcc3bb23
3c17e9c6
bd8bc43d
3d6cac6f
3c12d93d
3ce30065
3e333cf1
bd9f52c6
bc40e81a
bcdeb9b6
be2c8b90
bd45ad71
3d251111
3c41d808
bd1f953f
3d85c7ce
3cd9ea99
bc89bc00
3d7c0cb8
be0e6ea6
be48aed3
bd7d8a23
be1ac86d
bce0bbb6
bde0f67a
bdbcb4b9
be101a85
3ca85013
bcbf04bd
be74968a
bcefe747
bc4b40b5
3e108d2e
bce2f6dd
be364202
3e0fbb74
3e35bc73
3b7280e9
bd837d58
bd09c735
3d195135
3d83c0ed
3e432ade
3dab32d4
3e4f310b
bd5c9e8a
3b31adfb
3d07a417
3dbab9c6
bebe1f29
3e3972d8
3d105743
3a63caf4
bddf4345
3bd3ad5d
bd433bf0
39cb13fe
bd19f689
be507f9c
bdbf8036
3e295c08
3ecb99d0
bc8387b3
bca8a097
3e1fe509
3ceaef01
3b15cdd8
3cb5d0d2
bc1ce868
beaaf8f9
3e2d8ee3
3c641fc7
be5faa2a
bd4688b8
bda3ef9c
bcd09014
3cf8999d
3e535a41
3e64d9cf
bdbebacd
bd6636b9
3d923fa5
bbd37466
3de81d47
3ca39400
3c89063c
bb4e072a
3d99935a
3dd54e3c
bd01d288
bc450c31
bdfa90df
be0bb6c7
3d1820bd
3d88383f
bd6952bf
3cea9176
be75583b
bd58fd3d
bda5d6e6
bd82db50
bc698e58
bcb3e67a
bed3afa6
3c73eb39
3cc0067b
3df4d834
3c8205eb
bc97386f
bd3f7ae3
3baf6499
bd418d16
bd5cc1ae
bcc6a856
3d1bc1a2
bd186227
bd82873d
3d230ea4
3e6862c1
bb44e570
3cb5a490
3e060887
bd484432
bdc4d474
3c470094
bd7ed406
be15f3b4
bdc07f8f
3dfd62ff
bd7d3393
bd9ce248
3cddab15
3d6a8e15
bd4ac4ef
3a6256fb
3db69d35
bd3e89f8
3d304e34
3e06b20c
3e3a6e3d
be199b31
3cdf9298
3df35105
be16c62e
be7f16c0
bcf11ac8
3d9e05a4
bdf44173
3ce7caf7
be596d89
bd5c5321
bd6580c5
3e4eb835
bcf6aaac
bded94c8
3df9a2cb
bcaf8169
bcf49323
bd9b7790
bcaedf17
3e047369
3dd4f6b8
bdd6c4ff
bd707bf0
3df2834a
bd585cdf
bc9dc1f9
bd023618
3d4b9a6f
be591f1f
bd6d5f87
3ca1079b
bd092ca8
bde3012d
3d24f03f
bd24bb3e
bbc68ae4
bcf93733
be3e988e
be36233b
bb8c0629
3d14fa90
3cbb3588
3b8956e8
3dca9ffd
3cc52928
bd6e71e8
3cbc529a
3d2149c7
bd9594b3
3dcddc04
3c36dce2
3d3d121b
3e45f8a0
be0d69ef
3de87e09
bc9a6f02
3e78230e
3d69d50e
3acb3446
bd00e2c0
bda82b68
bd5d435b
3b82bf64
be43a7ff
bd445131
bad5e6f0
3dffb112
3da003a7
bc77c0e8
bd1c5405
3d61291c
3dae4350
3c6a5c8f
bc97969f
bec07ee4
3de7f496
be3a1831
bd3a7b99
bdadab3c
bd23723e
3ba1c155
3e1fddb0
be61a270
bbd095c3
3cce89d2
3e30850b
bc9b7cb1
be5266c1
3be7ccb7
3db06a8a
bde8b304
bdd719eb
3cd68593
3c903f5f
bb8f193c
3caccc2c
3c0349a1
3e909ed4
bdafc607
3cb787a7
3dae2ec2
bd1f0102
bd4f027d
bd1f9b07
bcc200cb
bdbd8ebd
3d221f43
3dd1e8a4
bc29b5e0
3d0be8df
bd338399
bd00cd2c
3d2a3cbf
bba92b72
bdd3f4d6
3c4e41af
3be7872e
3e0f3f5a
bbb0ff11
bd139048
3c9ee375
3e475be5
bd581598
bea2b8e5
be209261
bdbae3ce
3b12eb79
3d6ec658
bd06e8f5
bd4e2f8a
bc1edcd0
3ee3a3ea
3c385f51
be1cb0a5
bcbc335f
3debec45
3c371f0e
3d5bc31c
ba922cb3
3e455a74
bc87d610
be0419dd
bcec1466
3e8b1592
bca99e68
bd50b581
3e0323f8
3d844515
be85d3dd
3ddbec9a
3d1be4f9
3e282063
3d695c5b
bcfa33e2
3cc7a768
bbb30ab8
3c8124d8
be9dedb0
bb21a162
bd77d9f7
3dc56bb4
3c9cbf49
3ce8abdb
bc883629
bba9091b
bca2ade8
bd4b2e6e
3d1a2d7f
bd66db20
3d611357
3cfd4075
bd9a7104
3ddc04dc
bea404c7
3dbdf28a
bc094de1
3df23724
bd9abcf4
bde482d3
bbace0e9
be3cc071
3da3032e
bc1a2ca7
bccd76d5
bd690cac
3c02ee07
3e232f04
3e62f50c
bdc6c27e
3d7cfbd8
be298697
3c75baf2
bb8a2ce6
bd534024
bdb161dc
be85966d
be04af65
bcf7f606
3c47169a
be486d7e
bb60a79f
3e6bd41e
be8cb21d
bd812406
bd1dde50
3ca99be8
bce6b201
be192c73
bd19b94f
bd2c3d5c
3cbdbf76
be098c54
bbcb07c2
bd151c88
bca4ebc9
3ceb7834
3e3a6b8d
3e815cba
3add5ea9
3d69c4e6
bcce24ec
3caa35f9
3da99004
bd3c95ac
bca623fe
3dae5e0b
be12e5e5
bd4c459c
bd1eee79
3e2cfa89
bbbfe050
bdfcbe51
3d614660
bd33c156
be1f5fd0
bd5c3aa1
bd275cb0
3dcd8dd4
3dc04d4a
be8486d0
3c470a13
3d9aa70a
bad3a4c3
bd9f34ac
be103070
be15c498
bda4e800
3e194bf7
3e01f777
3ca18600
3ce21587
3e5bc949
bcc09ebc
bdf1e082
bdf2254b
3e291796
bd0ed1ef
3dd4ce62
3d2be934
3e182fe1
bd961a9d
bdf910aa
3d8cf6ad
3da2ce34
bd72be61
bcefccb9
3d1c6a1f
bd09c0b5
be9c66bd
bdb0bc1e
bcac26ce
ba622e26
3d414dce
bc0eaac0
bd46625b
bd90dc24
bd36975f
be2eae88
3d9d5631
bd773eb1
3e23e9e0
bcc5529a
bd8dcec4
3d937af5
3cefe8b0
bc07a381
3cadc485
bd739617
be38d190
3d855425
bd4c203d
3d0ebb09
bd81c343
be8dfe0b
bda2b7e1
bd20ec9f
bde0285d
be150ad5
3a8cc1bd
3e0fd6e7
bd7011fd
be37d07e
3e15be84
be20fc19
bd56f1c5
3d0af842
3e52cbf1
3e6737e7
bd2d7ca7
be1616c7
be3eb32a
be191ad0
3d8b39b5
3d87afe9
be921256
beac9e97
be252ced
bd4f498d
bd97b7bf
be6e3902
3d116582
bd3c948d
bea6f731
bc51e6fa
bd36ac31
bcaf5c09
3d07f2de
be055d93
bd5724f5
3d44857e
3c14c442
be5e81d7
3b9cd60b
bc78ce92
bb388029
bd5d7d33
bd1b9aaf
3e1b7cb7
bbaa7bfd
3d5029a5
3e66d999
3ca764c0
3e46e3c8
3d3657b0
bb6b3b50
3c6e61ee
bea321ca
3cff9748
3cb8cc34
3e2efab1
3bb089d6
bd87d41d
bc693f07
bc95807c
be93ec07
bd1a3324
bd46961e
3de93b8f
3e305ff3
bc76a821
bb1af12b
3e586418
bd0e8fa4
be61def3
bddadac1
becd580c
be477c5d
3da33635
3eb9797b
bd506796
bd61e140
3e5d4e56
bcbe4b18
bda7f416
3cce8983
3e988964
bccc0655
3dae93a4
3d18fda9
3dcee150
be0810d7
3dc0457c
bdc2453a
3e8bb5a7
3cc0402c
bdeb2cf6
3d6bf92b
3dc1faab
bd9823e2
bd24b403
bc8e0272
3c9b22c5
3e0bbe4c
bd18b8fa
3d284ae2
bcd31fef
3d1e1c88
be2c9ab7
bbedfd25
3e48d88e
3dc93dda
3ccb3dce
bd6a9271
3e3fe578
bc225450
3bc7c70c
bce76c21
3b52f11b
3d98cd73
3d1475a6
394b875b
3e72eec2
be611828
be5b491a
3d70ff13
3e2cbc9a
3e3f06fe
3dbb0d47
3d059562
3dbfe27e
bd43285b
be58aa6e
3e8b78ea
bd529b5c
3cd80dd8
bcbffea7
3e32b153
3df899cb
bd56dbf9
be6036e6
bde8ec55
bd133eea
3d845c44
3cb64521
be4f29f8
be29a501
be07ef9a
bc268c4d
3ce908fd
bdb1c1e8
bc2ea607
3e1f84af
be62b5b3
3ba7d84e
bc0263a7
bdfb5be7
bd43ae4b
bce69f36
bcb3d0f7
bd282ef3
bc9bed27
be88ef38
bcaae6d9
bd513f7a
3cd57528
3d07253e
be814c7b
3dbf4b40
3d1e5992
bdd18dd8
3e119d3d
3c8042be
3e2ec845
bc4ba463
bb6f136f
3e450afa
be8207d6
bdca0da2
bcce9651
be91a89a
bd52e833
3ddd951c
be0aacba
3c111d4f
be31c2bb
3b962655
bce0c8d4
3d59e43c
3e1da0eb
be119207
3ce99718
3d831fd5
bda2f970
be9a4985
be59ebbb
3acfff98
3e7c675b
3d3a8433
be814c27
3b31e3d2
bc9d6f97
3cfe4646
bcd630ea
3dc05dec
be245ec8
bda0eeec
3a598f99
bd9615b6
bbcfda61
3c3386d0
3de2c0cb
3db8ce8e
3deb30f5
3d4194f5
bc89e6b9
bcd7004d
3cc3cb73
be90b50c
3dc14ef3
3d4eb72c
bc00ef13
be48e71c
bdfdd74c
bd8750e6
bc62f7f9
bd03233d
bd40b36d
3e121080
bc6afd16
3d1596ce
be02e0fd
bd0e4c35
bd53ddf5
3e547614
3bd32da8
bd899786
3cba92f2
3ca978e9
bdd64190
3d4d8738
bd74c1c3
3d885cec
3be7d9d2
bd5fb828
3e8b7214
3de3748e
3dfe6b1c
bda3cf02
be4e84db
3df8bd74
3d87505e
bdb8bbc9
3c9c7525
bdfbcc4f
bc82b070
bd1dbdb2
bd120a94
be8f4739
3e1957e0
3cef7c13
3d18ed39
3c841118
becc2977
bd44c397
3da048ad
3e199ce9
bcb61c25
bd2e7b00
bda6235b
3dbcc055
3d2cc091
3d8e85cf
3e5163ea
bd11b855
3cab0f06
be9783dd
3bfa451a
be0ce9da
bb8cb057
3e5d9e4a
3dff5902
3da42b1c
bc838946
bd287123
bd304ad5
3cf978dd
3debe7f6
3c44dc61
3c50b8f3
3dd9bd9d
3e404525
bd20db2a
3d25c685
bcaf6132
bc8de84f
be1406a9
3e079a46
3e15f0b1
bd6797b7
3de61083
3c77609d
bdfb06ec
3e92ecfa
3d1e325e
bd943a50
bc05dfac
bce71b3a
bdabf278
bbc89764
bd32c109
bc8416a4
3dfeea98
3d99ad4e
bdc630e4
bcda6423
bd24b2fa
3da8cb71
3dfe5039
3c0421ae
3bcb82ba
bd40402c
3c2b247f
3d3c2671
bd18b8a3
3d9bab30
39ac7170
bcfbe2c4
bd8ee400
bd631f3c
bd63b613
bb2c76fe
3e09905d
3c808529
3d947b11
bd05e748
bd8afa14
bdc69835
bd3edd31
bc3e4e2f
3d5b8f26
3d028a42
be678e49
bddff626
bd48121e
bd168789
bd5cee32
bd251561
3d82bb4f
3cffe7fb
3e46adae
bd5b59da
bd536d74
bbd8b356
3e0670db
bd5b47c2
bc9e3d2f
bc6ca62d
bc860be5
3da904e4
3daec5a5
bcb3e0d7
b99c76b1
bdcbf76a
bd5427ae
3d6e7edf
3d892809
bcc011cf
bdcb0245
bb2f1bee
bc9f6666
3e380c0d
bde9f000
3d8249f8
3c54a47f
bb3bf2b1
3cc7f7e1
3d216639
bddb7863
3db9381d
bc37a089
3e0ccd84
bd1798ec
bf07ff9d
bdf1ae57
3d48f07a
3d9a1f44
bc8bd0b7
bc83e235
bd37c116
3e4b9481
3d343723
be0a32ee
3cd81610
3adacb60
3c052328
3c346c82
bd0af6af
be35cf22
bd7f4d5c
3e2f3283
3cab73f3
3e070a2c
bd2b93d8
bc0d437d
bd0cede3
3c783eb6
3dc228dc
bdf0b153
3e7285a6
3cba9f87
3e48ff9d
bd629719
3dd8db7c
bc20639d
3b71ecc5
bdbb77be
3e072c8a
3e43c8e5
bd7edd83
3d5adba3
bd545995
3b7474e4
3de542da
bc5f2efe
bd48b125
bd589b40
bd02ec9f
bdc9bc30
be360788
bcfc5f4d
3cbcdc64
3e26b01a
3e2e5074
3d4687d6
bdf412b5
3e0c7ebb
3dd01bf7
3d7da463
3e17d701
bd87dfa3
3d01b945
bbbe5244
bd325037
3dc33ccb
3dbb25ed
3d70fdf9
bd8174aa
bc5e9e30
3cfe4fcb
bd1f9c00
3d31fffc
3df282f2
bcb17369
3d5146e3
bcf01288
bda50eb1
3b1f3f48
3e28d397
babfbe41
3bbb07a6
bd3df25d
be1f9640
bd31ae6e
bca898f7
bd47057a
bd7ead16
3d454647
3da95702
3dbc6744
3cb73977
3c1b354a
bd3a15a1
bd901fd3
3d953026
ba95c72a
3c3988eb
bc509a80
bd455312
3e24d51e
3dbf88ae
bd1e9dea
3c812cea
bd905483
bdeb96ec
bd0eab64
ba7a531f
bda3e6ed
bd955869
3d0dc692
bd070616
3dc6731a
3b5ee1e5
3e2dafbf
3d6636ac
3cdb94f2
3cd0b7e8
3e23da54
3c3ccbfc
bd24ab99
3d4c61e0
3e278fe9
bd5ac680
bee67d06
bdf231a0
bdb92a16
bcf83270
3e0db4cd
3ba766bd
3d365ec3
3d8286fb
3cdc471d
be19297a
3c801fc4
bd93b725
3d12eed7
3d8825c7
3c1696d8
be8b1d3c
3a35424c
bd6d432b
3e0c3d8f
3e59790a
bcf54086
bd38bea9
bcff50f6
bd1655a4
bd8ab9c3
be37d59a
3e1b71eb
bd8188b7
3e2afeba
bd8b89b0
3c008566
bc08785d
bd40c66c
3d8402d8
3e21e4df
3e040d4f
bd7313b7
bd0e1756
bd4aa059
3d848eb0
3dfc1551
bd27c2c8
3b4eb429
3a1cd302
3c9035b8
bd6a8f96
be3c1fa4
3dcd35d5
3c744c2a
3e2a2f92
3db32e42
3d1e8def
be842c09
3d806054
3e00296b
3dffaa37
3d7be943
bc90f3d0
3ce96822
bc255f9c
3c97308b
3ca77723
3de74215
3e3fe66d
bd268f63
3da223ff
3cac653d
bdb54171
3d7f12be
3dafa8e1
3d03f4bc
3e4f9300
bbecba70
3d4d80d4
bd887432
3e17027e
3e049d68
bca8aa80
3d270a10
be4ab0b4
bdd1e746
bd3be9a5
bc98ec39
bd1ad2b2
3cf1c41d
3d5545cf
3de3e0b7
3d7fdcd9
bd3282bd
3c69224f
bcdbb6e6
3cec8970
3c90598c
bd6a66ca
bd0cdb73
3ca0b8a2
3d8d903d
3d300295
bc4d29bc
3d94d9fb
bc1a8d1b
bdebd521
bd8c871f
3cef859f
bd290be9
bce9e025
3d0f231a
3dd84f9f
3dc16d8b
be064988
bc0adb1a
3dc33143
3d14524d
bd51b989
3e8db89e
3deee71e
bd70ffc4
bdb49d1c
3d6e3ad8
bdd1dda2
be8852fb
3d4f4531
be001ee9
bda7a725
3e20bcab
3d16615a
bc6aba60
3d95f2aa
3cac8145
bd1b26bd
bd34ff88
bcc10a5b
bd3b77d6
3e109d67
3bbb8d80
be863ad4
bc418f34
be07e85d
3da63225
3e2f2b1d
bc18715c
3c19ffcd
bd0505d8
bd5865fc
bd154c09
be29f5f2
3e55108a
bde22b57
bd470fea
bc216d15
3c06dc4e
bd3dea15
bcfc0fc3
3e28071b
3dde7fa1
3e06c5e1
bd3b2ea7
3c28ddb6
bd340f42
3dafb02c
3de918c9
bc4a05fb
bd9f7f22
3cd475d8
3d13e9ce
bcab9af3
be4599f5
3c9fec11
bc9d44cd
3e0de51b
3cf5db9a
bddb8cd5
be885852
3da2a935
3e63a882
bd047f7e
bd1c15fd
bc10f9c1
bcf90205
b8c98d87
bc943684
bd61b180
be10de04
3e06a0da
3c9f8774
be360294
3cc58cee
3e25fc56
bd51515b
3c8cc575
3e03e1fd
3e092178
bcc4e116
be44973b
beaa9f95
3deb5ec0
3eabb2b2
39708d13
3d480beb
bec0a458
3c131ea0
3c4c17fd
bd519a9b
3c9bd3f5
bd42957f
bdaaf20b
3de8269e
3d3223b5
bd988bbf
bd529ea6
bc32022f
3e1466aa
bc0d2807
bcf44aab
3c8f10cd
3c81701a
bc23f998
3d5b569c
bd97eac6
3e6e5c5c
bbc6a7fb
3d7e3633
3d8dc9bc
3cbfa46c
bceefe9e
3e42c804
bd5f6667
3e7892b6
3e0dad4b
be85270f
bab68a91
bdb3bd75
3d45c15f
3bc2ca62
3d7a8add
3cdab54f
3e36326a
3d1e467e
bde09832
bd561b56
bef6b9dd
bc6b2e3d
3d2ba21c
bcc6d22c
3d957bf1
3d225f5d
3e0bcb67
bd6df3a8
bc8fea0b
3e133e4e
3df173ce
3c4d4380
3ca5790e
3db32e9b
3c1b74e2
bee87a2d
bc5101ed
3d1d3703
bdbd0a79
3e082448
bd3abb20
bc15f2c2
bccc42fc
bccb9fac
3dafd26a
be8a3086
3e2402f2
bdc49d68
3d418634
3c68ae3c
be477360
3d45eb46
bd8fbc5b
3e3b7fcb
3e33d2b5
3e38e0d4
bd06899b
be675f42
bd44a4a6
3e0c5f12
3e1ea59f
bd24481f
bd5b2aa0
3c9b473b
3c27a3aa
3d348fde
be060930
bca2e8d6
3c22d5ca
3d7b6214
3dd504f4
3dd9adc7
bea9752a
3ce4b4b3
3c5dd9e5
bc9b5859
be4ac112
3c5ee7c8
bd09fffa
3cc17b99
3c72c44e
3d060f04
3c86f41a
bda6c966
bd12bca8
bba13c4a
bcf12b04
bce81ece
3dbd3e00
bb805d94
3dbc32bf
bd2f9e2d
bd6fd1d9
3d0f62da
bd30a920
bda990d7
3da3f305
3c49ac2e
bcb8fc6f
bd91e118
bcacad39
bc102e7e
bd5bf614
3c083a19
bd0750a0
3d74c6d7
be242d6e
3d1f6267
be0e16ca
ba027dc0
bcc5f34d
bcc0d693
3c86ef9d
bd9ee26e
3cf22da0
3c89a71c
bd1f68eb
3d1d074c
bd59b189
3e4c419d
3ded79bd
be1c9dd8
3d9690be
3d558b5f
3e02968b
ba54f8c6
bb67c89b
3b8ae79e
3bfeac10
bce0b43b
3e2ea75c
bd6bfe56
bd57ae74
bd1cef98
3d7b68ba
be9309d0
3e0dc2d2
bd129363
be45dfd8
3e668bfc
3db48780
bde3d94f
3d6d8207
3ca52226
3d92a852
3aa9beba
3d134b28
3b2f60a2
bd29942f
3d0b1c41
bccf2e4d
b904292a
bc6c3572
bdc94770
bc8aed0d
3d6417e0
bc59c2ed
3c97e3a0
3e3b4da0
3dd86084
bc238b5b
3cd2b604
3ce43d20
bd1ed1e7
3d270f3e
3de0bf0f
3d53a3b3
3cfef1b6
bb19f821
bd9de44f
3e285cee
bcf1684f
bda7da8b
3e4e7bf5
3dcc5ef1
3cb56d3a
bc58efeb
3def409e
bc967239
be1e9714
bb7344a1
bb8e14d0
3da92b34
bd241dae
bcf66d2a
bd1c971a
3d5e8146
3c42a824
bd58b3e0
3d3725b8
3db14210
b99aa3ab
bd27f750
3cd078b0
bcd37c7c
3cbc0224
3d9cdfe2
bd1d7e6d
bcf10b32
3dbfd34d
3cd6f21f
bcb25316
3e392bdb
bd320be1
bc861ecf
3dc930a3
3ccf54ed
bcfe683c
3e0742da
bc123d6e
bc096d01
3cf1abde
bda756c8
bdf2f708
bdd212e2
bd1c0ff4
bd178c16
3d377bd6
3a0ad2d5
bda81ce1
3a9e6f6a
bd74f381
bb311317
bd687dbe
bd68195b
bdad1e77
beb75593
3d7ee0b1
bd5daa7a
bd3dd6f8
3cb3ec8d
bd38b4d7
b9d7edd2
bd83d5df
bd14dd80
bbb70a51
3e293c62
3ddf03d5
bd58acdb
bcb8be34
bd4205f7
bd4ce67f
bc8d752f
3dec48f3
bc0d7e01
bc2102f5
3e15194e
3c515182
3e02ff51
3cd34645
3dda4dbb
3d596ae4
bba67c80
bbe244bd
bc6d9ade
be1fc828
3d8289a5
bc1a694b
bd688c6c
3e2092b6
bdf59d58
bdb99440
3c515a7c
bdcdcfeb
3d03f24c
bcc5ecbe
bd8fe9f7
3d26fc74
3d1d928f
bd184676
bcc1378a
bc126e4f
3c81ae21
3e06f51f
3ba8edc3
bdb49806
bc8a8675
3d4a964e
3d5af592
3d67f815
3d00521c
3ca5820e
bc817c40
bcf81894
3d040c05
3e335185
3e093a24
bd07916a
3cb48df2
3cce3d41
3e36e47e
3d2ea49e
bd728242
3e12539f
bda3c91b
bc00d3a4
bc810fc4
3db021b6
bd849109
be199647
3af5f888
3ad99b44
be09d4ff
3d0a1fd0
3cdc14e0
be1241d3
bdf89fb3
3c97eb21
bce7b803
3d295c02
3d9918da
bcf122e9
be29927b
3daa741d
bd5ec246
bcbb3c50
3e1e84c1
bd6b1acb
bd47778e
bc104499
bbcafb8a
bcf50a39
3d9f3d69
3b6aa795
bd4213ad
3ddd4a4f
3c901c31
bdc59465
3d6e4c58
3c751c9a
bd6d39c6
3df75f70
bce351ac
bb6daa9b
bdff601a
3d3a8172
bdcfa7cd
3c8c6a7d
3d18e0e2
3d2aa126
bda8271d
bd5ae9bf
3cc27457
bb2ae32b
3c03959d
3dd5f2b2
be905600
bc001667
3d21cb19
bd34fade
bd940e8b
bd97cef4
3ca86c9f
bcdabb14
3c99d091
3c60e1f5
3e0a8461
3e6bc4f2
bc9cff07
bd0aa748
bd857fe8
3da2da66
bda4b21d
3da859a6
bca9fc35
3ca1c316
3db4685f
3d0510af
3d377def
bdfe7a9b
3e06c3e3
3e002fc1
bc9b9bfe
3ce3620b
bd49c7be
bd0bdbfb
be01fa56
3d24a05e
3cd61590
3df993d0
be3a0cf2
bd7eea44
bd6dd605
bda07473
3c44b45e
3cb5851d
be05d009
3da638b7
3d123444
bd52fc5e
bd92fcb7
bc15a9e6
bc310045
3e898931
bc818f49
bdafd7dd
bb65bd2b
bda7f192
3c20626d
3b90c32c
3c6098d3
bd2f3f62
bd51453c
bc72e844
bc808a0e
3dd45e76
3e1bd18e
be965f56
3d2b4714
bd2893de
3dc3fe7a
bc883422
bd3b5b0e
bd0472c8
bdb1606b
be0cc680
ba8714f2
3e088d57
bca6cdde
bd6a8d75
bcc448d7
3cae051b
bd53384e
3c851c3d
3aae8ce5
bc8d83f8
bda3873c
bba6ee43
3c96f101
3d4271bd
bc66855d
be022f41
be0a4a8b
3b7b7204
bca43a39
3d132482
3d82bb14
bc8e5859
3d104d92
bcbb6d23
3cece823
bcf12192
3a7f184e
3de9597c
bc8d5945
3dcb618e
3a7d9c6f
bb458c42
3caffc38
3d9f2841
bd463adb
3e2ebe21
3cc759c0
3d997441
bcc60eb6
3ddce294
3d40d0c3
bd0df6c1
bd47d48d
bc787671
bd13a88b
3c32d25f
3bfe037a
bd5894d1
bd283005
3deec4b7
be145e26
bdb55e16
bd1ed1b9
3c48ba29
bcf89db9
bdb33d12
3cc8c5dc
bd22d726
