3e04280d
bd514e02
3e29a9a1
be107201
bda7d0ee
bd37fb3e
bbc83f37
bc72e70d
3d997b6d
3cc044dd
bd27d950
bd8bb0c2
bc0dd0db
be364ea6
3d8e364f
3e770aab
3c17f24c
3da3be30
be2817a3
bbbb8c24
bdfd1a8b
be470d8d
3e59a9d2
3e0842d1
bd889111
3dc53996
bd9537e9
3e023119
bdbda3ec
3cd43b65
bd639108
3d2d3b5b
bc4a9a1c
3cafb2ea
bd547c93
3e48c170
ba136fd6
3e3c7e35
bea44cda
bd66941f
bce40891
bd67b205
3d5335c9
3d35b1fe
3dd83d6f
3e331640
3b9d25f4
be34bc5c
bc39cffd
3e575f06
3c9d9bf2
bd4cfa6f
bd2b5d65
bdddb17d
3db882f6
3d999dcb
3d2a711a
3d887e85
bd2016dd
3dd4e20e
bddd7896
be82e0f1
3dfb7d70
3d282428
3e464645
bd112f92
bde7f29e
3e0f302d
be308d0d
bcd70851
bbcb496e
3b284d27
3c833649
bebce106
bda5c3b7
be113b0d
3b36ab19
bdd4417a
be584a01
be0fd2d8
3d33f620
3bc66264
be972c5f
bccb3ad4
be2ae1fc
bcd53bf3
bd473a1c
be34b4f9
bd638e97
3e84229a
3e12f071
bd939c01
bebda178
3e9c5395
3e947063
3e247fba
3c2751f0
3e1c71e5
bc441df3
3c9d33cd
3e246181
bd8207ee
be3d6052
3e64acab
3e4b5260
3df23a39
3e4c584c
bedef35e
bdbcf8e1
3e1e6d20
3d80b663
3d8fc32f
be86148d
3e6856c0
3e68577d
3d51fcb9
3e362662
3ea37452
3e8fb762
bc9d5071
be929b52
3d059f0f
be5f6421
be6d5a6f
bce6c974
3e00d180
3be1bcf1
bd6c96f3
befafd0e
bdf2eda6
3ece5f14
3dfe6528
3e0d4eaa
bd956053
bdaa5cb0
be2ca5ac
3dd1aee5
3c0fae1c
be46f322
bdbdaa05
3e9cf2ed
bbf05f23
bed255aa
bde471d9
be0a1371
bebd9412
bf02dafd
3e16217d
be4b167b
be0b030b
bd7c3008
bd5c12bc
3d812d17
bd9f6a9f
be2799a3
be517da8
3dc84435
bcc39043
bdde6d38
3da17da6
bd193eb4
3cf275a8
be28c400
bec4a7f0
3cf26c4c
3e0aa203
3bd5710d
be10e7a4
3e5266ee
be5f1cd5
3ce2f79e
bd8db5ab
3d612f8c
bca2056c
3d28295a
bd19fb31
3e48625c
3c94879a
bd53a9ba
be4e6fb9
3cd5933c
bced4832
bd5f4a1f
bdf27bd9
3de346ce
3d02a8fa
bd2f4c5e
bead835b
3dcf623a
bccf79bc
be2fc9a8
bdcbd6a5
3c0d30d4
3d8744f7
3e87808e
3d898169
bdfde8c1
3e19184c
3e7de679
3e2c3d29
be1c93a4
3bc92c45
3e950b8d
bd842a74
bc3d0b28
bd32303a
3db4d755
be35f455
be091078
3da0bea4
bd9161d9
3dfbbbc4
3d91b85e
3d09312d
be3c02aa
3dfe7120
be020d8a
be0315e6
3e8d98d2
bdff6fc0
3d062d3f
3dc289ac
3d9bae3f
bdbec26d
3bf45c16
bdff8b85
3ee60244
3d42df65
bb84aa77
3da2c8d7
bd8d24b1
3e7fbcaf
3dc33ca8
3e56629f
3c236eb9
bdbad173
3e424939
bce064b9
3e0c9c7c
bd611ef6
bcd7d8a4
3d1ccfba
3d945175
3d62c789
bd83e885
be22a496
39b5e98c
3d9733b9
3dd59796
bd54c6d7
3e0ef6ae
be74a0e7
bd7efa20
bd69a08e
3c5436da
3c8263a4
bd0b23c1
3c9c70c0
bdc4b79d
3d6a74f0
3c733868
bbad564d
3d9515d3
3d3e7674
3da25608
3d9d940a
3cc79e99
3ddfa9ae
3c5fcf9f
b9098a00
3dce1c8d
3d840d1f
3dc5f645
3d85be74
bc94ff8d
3dd9fc40
3d30b120
bdb6abc8
bd5d6f52
bd9554fd
3d529e86
bd4ea5ee
ba94c8bf
bd3b7813
bd80abb0
3d87e83e
3da1ca46
bd5d08bf
bd9326e6
bdbddeec
bd6391db
3d4146b4
3d89a942
bd9e6ca5
bcd5a788
bd50fd63
3b2589e1
bd0ea291
3d25fe13
bb37bcbd
bd290978
3dc15914
bda5a9a7
3d38f9c1
bda7df6e
3c3d10cd
3ce28b1c
bbba3915
3d976f6f
3d8b9898
3d855a5e
bd307224
bdc22de2
bda749dc
3cee7811
3ca0972c
bd89f4d9
bc700555
bdb5ba25
bd323991
bd33b0c0
bdac6119
3d8032aa
3da2502f
bd8f4b5e
392b8b2e
bd9882fa
3d55bdcb
3d8f990c
bd41c734
3af9d8ee
bd57ed47
bd1ed5e8
bd9da726
3b898720
3d678ef8
3cc93419
3d9249df
3db0782d
3d471ebb
bd8a31c0
3d2483af
bd9fedff
bc1025f5
3cdfb031
bb650b19
3ade928d
3d56be14
bd551e3c
3d02a71d
bbf3cf41
3d6e9170
bd87a898
bdaa1f99
bd120b66
3d5415fc
3d62b56c
3d5aeac8
bb878332
bda1bc36
bd8a1388
3dbac869
bc804020
3ca8764e
3d93b86a
3dab1de4
bcac1600
b9a18e0c
bd12f03c
3d90f83e
3af30201
bdaa3d3f
3d62ee84
3cd7a432
bc9a8323
3d948d34
3ce25150
bd857cf5
bc3b0578
bd3dc1bc
3d945f1c
bcc034ec
bd03bd15
bc84d7b0
bbd595da
bda7aef2
3d3c9b6e
bda63273
3d0c9497
bda098d7
3d9acaa9
3db60ac3
3d5491e0
bda09332
bca9ab3b
3d945335
3d48d2d6
3cdd4ba3
3bbb42d7
bcca9a03
bdb39b93
bc199d33
bca4d4b0
3da899d1
3d726010
3d721353
3ceaf3f4
3d7b5375
3cb7e630
3cd157b2
3c640ccc
bd7e2e8b
3da2546e
3c2759ad
bd423ee5
3d71054f
bca53b31
3d74a563
3d9eee7f
bc9a3688
3e9d8de1
3ddac487
be538233
bd2d276b
beb69500
be0e69f6
3e1ccf81
bea1507c
3dd7830d
bd8c8873
3d511f47
be01b978
3e0de4a3
3ea4c3d3
3ecf0c53
bdc4b66f
3d413e7b
3e753c6c
bdf8b11d
bea45390
3e168d93
bead70b3
be51af77
beccb7bf
bb0dc4a0
bea6d063
3e6f2c6e
3e738ffc
3ed846ab
b8e92e0b
3e809861
3edc26ec
3e503197
be325f6b
be2cf3fb
3e7a517e
3cf6b7ae
be0a2be0
bda89829
bc89cdf6
bd88ca5c
3db6aeec
3d0a3100
3e82d158
be2b3264
3e80bd85
bebb3f12
3e3bfa09
3e6d3f12
be6bd899
3e00630e
3e6550a8
3e2d8b28
bdc3ac0a
3e33232f
bd9de910
3d21efae
bd9ace34
be40c05c
be3b746e
3e2a0b74
3e217c04
be65a1a0
bec8ac1e
bd6365ef
3e7fe230
bdafcd7f
bd528cf7
3bc43de5
bbae8815
be8ca1ff
be8be4ae
be82261e
bdff6ef9
be0a485f
3e688aec
3be0b35b
bda77a91
be2fd313
3e097c44
bd372a23
3db6aa9b
beb81af2
bd5a0a4c
bcf71566
bbfb00ed
bd93fb6a
3d77ee07
3d25091a
bd9e0f1e
bd407269
3d24a064
bd7c6d4f
3d6e334b
3d3ecc24
b9f064e3
3d7d30c8
3ce61307
bdbf9a14
3c9bae08
3d85d51c
3c5e28d0
bd9187a5
3cca6d24
bd6e1670
bd2de1b6
3c450f9e
3d7a49ac
3d581034
bd407aa9
bdbd688c
bd9af164
bd95ed00
bd9f5e05
3da5b5af
3ce887c6
3daa9e62
3d6ed225
3d109678
3d8f7991
bd461926
3bd7a770
3c16d9f1
3d9d0b90
3d181b7c
bc9be904
bd4125e2
bd0be21a
bdb564a0
bd865138
3d24de59
3c58b32f
bd9b10bc
3d285d1f
bcdede65
bd481aad
3b2867c0
bd71727d
bd71a8bb
bcbd0aaa
bd7f29fd
3d9dc874
bd0ab0a4
3bd80100
bd04ecfe
3ce19930
3d997ddf
bbf193fa
3da35e57
3d24d5c4
bb5ade80
3baf15ce
3c808225
bd948312
3dadc2a2
3d9b857a
bd968d7b
3d887aaa
bcfa0f68
bda4def4
bd955f74
3daf3653
bd8556e3
3da577de
3ce2b7cf
bce70624
bd9be87f
3d1b5a14
be2faadf
bd042687
3dc5f01c
39ef1f0c
3dd97511
3e0b5d30
3d16639f
3a870bed
3d74cd6e
3d90db3a
3d98454a
bd396a34
bd68f5d3
be23f84d
3e21eed4
bc9e9521
3da095a7
bd854d88
3de9ce94
3e825bc0
3de83cf4
3e5ad842
bdf144a8
3e619134
bb7464c7
3e52460a
bd919337
3de8f272
3dd1da41
bdef7b77
be609eb1
bdf0e938
3d412d23
3d92b558
3e36730f
bd8315b5
be455c7c
bcc9cf53
bde47528
3bd3abde
bd3f778a
bdd54a81
bcdf2708
3c26cfe4
bba4bb6d
be1e73b9
3d860c73
3e3fed3b
be17b32c
bd0a1003
bdeca146
be7ea2a4
bde55454
3dd3aab7
3d6efeb0
bde7a886
3dfc61a1
bdd747c9
3ce3a71d
3d9e034e
bc33f01b
3d76dcc8
3c1f04d9
3de5d998
3d828935
bd7e839f
bd00c2be
bdb49f1c
bc9091a2
bcf65f57
3d94461b
3e4bb7a5
3d5a737b
3e37f2ae
3d5dae11
be31a69a
3d34474b
3dee0372
3e507dd0
3d3d180c
bdbf2741
bd5515c8
3d7a1d2a
bdac57fc
bd8226a8
3e2021b7
3e046a00
be828914
3e0f983f
3c73bd46
bca0b5fe
bdb53868
3de9ac7b
bcccb25e
3e1f1ba1
3cd5853f
bdbea05a
be11b09f
3e503ecb
be24e4ca
3e0fc714
3c072642
bdaa794e
3d0aee93
3e8f5561
be4d168c
be5a25f5
be94a3d6
bc89f1d8
3da05a33
be54c68a
3e439ab3
3e02c428
3e257984
3e0e29f9
bd9db728
3d0b8cbe
3cab8ff8
3e30e33f
3d799106
3e50d8db
3e083fa6
3c2c5f21
bea62083
bcb6f9b2
3ce6d865
3c793b7c
be3895e0
be8e414f
bd486ae6
3e00ecca
bd840044
bda5b402
3d7cd232
bcbe8007
be321ba0
bda7fdb7
be3d2ca3
3cfa26bc
3d23e5c6
bd57949e
3db1ad36
3d98b548
3d20a6a6
bda1e78c
bd9d85ec
be3e9ef4
bb569c53
3e5d8678
3e5cc50b
bdc467f2
3c9476e1
be4c9bcd
bd79d67e
3e18d1ed
bd4ba89b
3de364af
3db8c84d
bd46628a
3e33c777
bdcdd85f
3d01cdd5
3e198aae
3ce571f7
bdcfe119
3d4fe4e4
be333334
be10ecec
bdad1469
3e45495f
3cee20c9
3dacee5d
beb62db5
3d77f5a0
bd873560
bd53e333
3ba71899
3dd3ecc3
3e2bd1ce
3ce0893f
be4dccd9
3d9fb165
3ec33a93
be55b74f
3ea050d0
3ddc4134
bbc051f6
bded6bae
3e319481
be59ff1c
3e83256b
3b863cb3
bd6084c6
3e32d0bb
3c8b0704
3e428ee8
3dba520b
3c957f52
3ebc9ecf
bd933d53
3ba307eb
3d52ef2d
3d6f9418
bdae7462
be53778d
bda6851c
3e3d8919
bdd1b42f
bccc1e64
ba84e525
bd2b98df
3e0240e2
be87638d
bc8a3e3d
3d906df5
3dcbf838
3e3f7a99
bd4eef73
be296464
3d44a442
3ccb1d92
bd6e6d97
3dfb65a8
be12c08e
bddb8c9b
bc91551b
3e333488
3dc273b2
3e6bd3e4
3da24508
bd23dd11
bd0ced0c
3eaf3f9f
3e4bf6bf
bcd48019
3dd1b0d6
be26b625
3d04bfe3
3df2753e
3d81eb2f
3e33f5eb
3e64082a
bdd813a5
bc3f4ff1
3b9816a1
be4f483f
3dc9f71d
3da28fc8
3e0ec1ef
3d8f9f3a
3d3917fd
be489bd3
bd8cab48
3c5d7f9e
3bc78e99
3da7eaa1
3c033740
bc634933
bd9d770f
3c323311
3d2df336
3d647d56
bdbb6be8
3d32d220
3d67364f
3dccb5aa
bd2feb46
3c4bd778
3dc12c52
bca0a19b
bcb2344b
3b1d71d9
3ca046e7
bda9f985
bdbb806f
bd54d9a1
bd97c868
3d269c32
3d4e210a
3d378422
bd825a3b
3d9a8946
bd9e6d96
3d964e31
bc7479c3
bd0f0b5c
3d192917
bd943f79
bcbf28a4
3d5f2fa4
3d044a95
3c5e985f
3c758440
3d68718d
3d1ed48b
bdb7d1a1
ba9cb2c0
3db35486
3dbab4a1
bdc3d362
3d03f5ee
3ca889ad
bd0cd9de
bda841cf
bbb2fb6c
3d5ff913
bd593446
bdb342db
bd27fe1b
bd2f1bd7
3d426b07
bd57a10e
bcac8067
3da23741
bd4efa0c
bd87e54a
bc21d376
3d9306aa
bdb31906
3d7edb88
3cce4628
3cc6c022
3c03f840
bc7fd8fb
3caa17ec
bd07ae3e
3af9ae7b
3d2f7dc9
bc5852b8
bd7cc08f
3d0ade77
bbd3b8c5
bcb63e7d
bcb839ac
3d63ccd3
3d83e93c
3dcd683c
be897d9f
bd874633
3e3cbd48
3e2fc591
be20d93c
be59619b
bca78d71
be8dddf2
bc499f50
be824adf
bcb531ca
3e17818c
bc6cf27c
3e24eeb8
3d8e1921
3dbc9119
3de29401
be3728fb
3c6993fc
3d8d2232
bdf726e9
3e024e58
3d8fe68b
3d4d090a
bde2a0c8
bccc39fb
3e1c06dc
3cf05d40
3e4402ae
3dbb9037
3dccb8ab
3dd3812a
3e80a1aa
b88cd916
3d2160ef
3b41e422
bcf6eef4
3dc8701c
3ec082d3
bdbccfce
3d34c96e
3d02bee7
3d9e3e87
bf0fa540
3c1c0c8a
be11736e
3dd3bc27
3e0fad97
bea57992
3e43d686
3e4553a4
3e32abe0
bb96e411
bdb97b07
bd889f3e
bc8b1dd9
3c9ac22e
be2b0d16
bd92c7e7
bdc609fb
3db0c102
3e0b5508
3d7c42d4
bd9fbf82
becd8e4c
bda20046
3e78bc29
3d8eb985
bcf600d5
bbd8dcaf
3cc26446
3e471e05
be4449c9
bd190c72
3e32cb25
bd13cd03
3d6fb599
bdb299af
bd83b23a
3d92a6d9
3b534c7f
3cdf3ad9
bd99174c
bd6ea171
3d9e1064
3c2c2c31
bd185135
3d6179a2
bcc97186
3d1aa6f8
3cf4e53d
3da60b26
bd56b957
bd176d43
bcd39238
bd196638
bdc4376d
bbdd2d89
bd7a0ad4
3cf11a39
bdb1399f
3db1e151
bd7f49ca
3d1ed2cf
3d113def
bd991539
3d2422c4
3da0ccde
3dc29c56
bcfe0973
3d8a14c0
3d059144
3d410f84
3d24130b
bb115113
bd6f6e0b
3b97ddd2
bdc40c40
3c388c66
bd7eaddf
bd926026
bd411dd0
3da36ecb
3d29a85c
bc8aba9d
bd638715
bca7ab69
3d223d5f
3c34e8b3
bd923f57
3d8f22f5
3d97a2ef
3c306943
bd2fa7d2
bd71ecd0
3d18c8dd
3da01603
3d5988b5
bcf15c1e
bcd72b1a
bbcafa0f
3d0c01b9
3d88b021
bd3cbc9e
3d7ed782
3d979413
bd980e66
3bec967f
bceabf8f
bd2628d4
bd24f224
bc0eb29a
3c0de89e
bd668db9
bd3829c8
3c50e71a
bd8e772f
bd7ccd76
bd501c7f
bc884354
bdbd3a61
3d62994d
bca7d09a
3da3a018
bda59029
bb40b610
3d3016d3
bc90d2e9
3e8829d5
3e3f7977
bc800be8
3e0f6145
bc228c33
3dd60a61
3e143b1f
3c381aef
3de836da
3d934d57
3dee11f1
bc6fb6b0
bb0366d3
3dc2d5b0
3d590c7a
3c96fd30
bd01b112
3e5e6323
3dbead89
be576e32
3d635677
3db9840b
be0b1599
3d29b6f3
3d809b24
3ddaae04
3e2cba36
bc9f00ba
3d78644b
be21cb3b
bd249d5e
bea4b2f0
bcbbe686
3c502e54
bd692c62
3d9eece5
3db911b1
bd2ccecd
bd3b33c5
bd9e5057
3e91060f
bd9145ba
3da2afef
be8216dc
3cc55e54
3e4e87a5
bd845085
beb23031
3d99d120
bc92ec67
3e03438c
bec82c5d
bdc26b24
3d20f447
be539b3e
3e78333c
bc2f3a47
be4f749c
3c4aa0cd
3e14fe8c
3ac68a04
be01a1e4
3d31a079
bda969af
bc4cf6e2
bd8fcf1e
be6920bb
3cb320aa
bdcdcf8f
be7cb3b9
bd77a17e
bda7035e
bdd4cd03
3e583066
beabe715
bdaad665
beaa7e22
bccabc1f
3dec0a23
bddb1467
3be2b93e
be0e81c4
3e197eb1
be00b3fa
3dfced99
3db48ed9
bca713b9
3e17d295
3d3af3cd
be9caaa7
bd80a1db
be03f861
bce81704
3e0e14af
bdcb9cbf
3d93bec2
bd528296
3d228de9
3d09ac2e
3d226e90
3e4cc0a2
3d944b37
3d886eb7
3d802fef
3cf963d3
bea47889
3e2ce849
ba831627
bd07d1ac
be0f8a4b
3d38f683
3e27ee4b
bb84a365
bd61bcb5
be3e22b4
3e13cc67
3d0bcb36
bca642ef
3d886230
3daae8a3
3d71a509
3acef4e4
be49f785
be02083a
bdf58acd
ba25a96d
bc4a7563
3dca2139
be7c9fb7
bb950259
3d26ab7e
bd62c21e
3d21c309
3cb9b21d
bcac71b7
be745365
bdb41f60
be1ca12f
3d34fce4
be5c090c
3e174c69
3e17a617
bd06be52
3c6bc6bc
3d0b6fac
3c9be9d5
bd8c7adc
3cc4f860
3d14803b
bcf62379
bcad2f78
bd0cf721
bd34e313
bded5e86
3dd04c51
be6ff349
be3320af
bda5754c
3dc63df5
bdfafc9a
3daf417e
3ca56ae6
3d2372b6
be2a5d04
be46c4e6
be65f158
3dab1aeb
3d84f37d
be262dbc
3b357982
3c7d98fd
3dfb5149
3d9838c2
beb88ced
bc739322
bdbe5f57
3e2423ff
3d96a783
3dbfd08e
3c5f66d0
3d75ab73
bdeadf60
be0ecb2d
3dc8e30b
bdd09034
bd54b869
3e14aa7a
3c8c85d5
bce6ccc2
bdfcab49
be0370a4
bdbb76c2
bea65800
3d8ad1d0
3ccbfce0
3cb38ff2
3e653fa7
3d27cfac
bdc92c71
bd2099de
3dd6df3e
bd18b97e
3e66ca75
3e13c307
3d87e353
bd651610
bd415bb0
bdc2789e
3de24c87
3d1d8d60
be5312ed
be711d06
3d8305db
bd11b775
3e9afc46
bde5e241
3e1046ae
bdd018cb
3e27a9c2
3db22a94
bd81c08b
3dfd08d4
3d352603
be0b385a
bd78a3b3
be962e9e
be8e4ebc
be3011b0
3cbadab7
be6134ae
bc0f08ba
3e22cba4
3e13a269
bdc32d93
3dfb2764
3e7e1eb4
bd7244b6
3ea5f301
bda3f0ea
bd2809b7
3c092046
bcacd0c5
3dd88b54
bda6d669
bdcf5b34
3db053c4
bda7d707
3dcada29
3ddb8272
be394974
be1d8313
3cc8b555
3da2f95e
3ac9f902
3e28af70
be5460e9
3e194deb
bcb9eaae
3d3a9610
3ce2883d
3ca8369e
3c50da4b
3d4eaa0e
bb886f7d
be93734d
3de39291
bdb632a0
3e3e31e5
bd9c00ec
3d953f57
3e1ca0ff
3d9e633b
3e3dc547
bd1017ee
3d866a49
bda5aa51
bdca3bd9
bd6006ce
3dc7679b
3ccb0ee4
3d9aeeda
3e82b7b3
3d0e44da
bd068aaf
3cc51cea
bdb5c52d
3e4201e3
bdee2dbd
3cf9c4a4
3e2a1fc8
3cf4dcdb
bdc0aece
be0150a0
bd9d0a7f
bde0819c
3bae8a39
3d63d599
3d220aa4
bcac9790
3caaa854
bcb0057c
3d9dd024
3e2e3084
be04b3cc
3cec2db0
bd5b7263
3e42a575
3dc6aa6b
3e1d2d99
be916cbc
bdac5b80
bd35ba49
bd668f05
3d056aba
3d820602
be1d5708
3e1f6c42
bde1e6c7
3d11c825
3b805ab0
3c530813
be7da91c
3db19814
bd663d94
3c0f64c2
bd4888a3
3cb664dd
3c9062e0
3dec0dc9
3de617ff
3c5c1b05
be1d1b32
bd8e0a3b
bd4affa8
bb4e68e7
3dd8fe28
3e233f7a
be447e8a
3eba2d0f
be986619
bdd18602
3d0524c2
3da30084
3de00520
bce02133
be33ce6c
3e4efdf5
be02ebe1
becde172
bbf4f349
3df73803
be85099c
3e4b3967
3d3c902b
bd7028bd
bc2f156c
bdbe3fb2
3e7c38ff
3d7e2b38
bd22372f
be90fb2a
3e149c85
3e4a7eff
3d5e90b5
bcf7cab7
3d862e88
bd345d25
be7c42f9
3d588c99
3ccc4b7b
3d60070b
be22068d
bdcf2ab9
3e7299eb
3e39f5c7
bd22511a
3dcf7e8b
3d1b86f3
bba7a13a
3ddb2650
bc849a4f
bde99af5
be6efe35
be3682e3
3dbef597
bd3504ba
3e7b11ba
3e12131c
bb459795
3db4d0dc
be1f7ed7
bdcf0e7a
bd0d165b
3e1839f3
bd9b1c01
3de4e703
bb917e1f
be585313
be25fc9f
3e15ea1f
3d4ba785
bcde8c10
bdc03ffd
3cc26a0e
bdbb3662
3cf628b7
be03d447
beb82bcf
3cc6c30d
be145c05
3e0a33a1
bd8fd50a
bdcebebd
3dc874c8
bdd735c2
3d80829a
3ded42a3
3c7363d1
3de5e899
bc0887a0
bc8211bd
bce24882
3ddea631
3d987422
bd4af19c
3ccea807
ba9b1a2c
3da66a12
bcca9b63
bd28bbf7
3dbdbfcc
3cc4ad85
3cc3dcd6
bcfa5178
bca54817
bd9d6eb7
3bf23a13
bc8b6bea
3d9da5a4
3c86d46e
bdd2fede
3d3de85e
bb9139a1
bb5c1ea0
bda42be6
3cdc7e9f
3daf404f
3d6af7e6
bc853978
bd4698db
bd0ff9d5
bc2aca0c
3d09a59e
3c74a97c
3d2f3e45
bdb4b63d
3d73359d
3da18b46
bd56c9d2
3d97ebd8
bcf868ea
3c87e90c
bdb86ebd
bc9a1243
3dabb256
bdc69a67
3ccc34d0
bda4c74f
bd3053a8
3ca9aab4
3ce421a8
3d365e9b
bc52dd0e
bcc69af8
bd2d7d8c
bcd17659
3d99f132
bda0ff57
bda3dfc2
bdae138c
bb98a911
bd50fa7e
bb351c7f
3d1c3933
3d6574a2
bc8c8f84
3d8262fd
bd383d93
bd3c8602
3cccb656
3dfef00a
bce58354
bc2e5164
bd38c416
3c12c66f
3cb2ecbc
3d8102aa
bdbb0676
bd9db96f
bc17caf8
bdd3d819
bc9cafc2
3d097e4e
bd509c6a
bdfd3f42
bdd20d80
3df64f3f
bd586bb5
3e263d27
be429c3c
bd830aa5
3d18fa8a
bb33daa2
bc210b08
3dd29174
be052614
bcc4eb6b
be2c2678
3e3ecbe3
bc9587a7
3db1baf1
3d34bab2
bd1ffde3
bda0228c
3d257430
bd028646
3dae5afd
bb585c11
3d82b2ff
3e0e7017
3d9ca5f1
3b700254
3e83d4ab
bd7124e5
3d996400
bd43d7e9
bd24e49f
3db38008
3e3451d7
3d10fa7a
3cbc2230
3e280129
3e0985b5
bd8fc718
3d838b5c
bdba8cfb
bd08538d
bed5d48e
3d54c8ee
bd7a9970
bdbfe17b
bdc777a8
3d1645f1
be0f28ae
3e27d815
bdca1f5c
3d963b97
bd870597
3e1107fb
3e1b6208
bd5bd240
be7602df
bc943624
bd4d8b40
be18e048
bd26cd93
3d1b645c
bd116e11
3cc838f7
bd7aebfa
3d29f6b7
3c9c0b6a
bca5cae9
bb553993
3e280c0f
3e408fdd
3c69ab3f
be0ee7e0
3e25a064
be03ae39
bde36539
be074482
be12130e
3dd48881
3dd90843
bc925a43
3e34ecb8
3d687c14
3c4e5297
3da8862d
3b2870bd
3d0204d1
3d8acaa1
bd46e59f
bc2c5fe6
bd70c1bc
3dca7d13
3c92d554
392e4b78
bd95cab1
3d98257f
3d98cabb
3e411cc4
bdd0826c
bd3e1060
bcbfd5c3
bdaa37a8
3d9eab57
3d982b6a
bdb13f95
be029a51
bdcaa641
3dcf94ab
3d6e1510
bca4a6d8
bd96a757
bbc99634
3c2f0264
bcc5ca61
3d828123
3ddeeb91
bd0a0027
be279e51
bdd5c725
be08ea47
3e87e7c0
bd8239fb
3d0fe63c
3e3e2854
3c24cee4
bde259df
bd07d4c5
3de0076f
3c8208c2
bce35506
be6aa867
3cf0a07e
bd6c0276
3e312aeb
3d5e2d0b
3e709849
3e0834d4
3e17082d
be3713e9
3dddf178
3cdad794
bd994bd5
3e643201
3e0f92c9
bd8d15de
be27eb0c
3e1fd162
3cb67ad5
3c86088a
bcde84c9
3d995d25
bdc7331c
3e171788
3d26f50d
bcd77e3c
bba4c488
3cb11bdb
bdf3e5d5
bd40a60d
be90e3eb
3e78ddca
3d91913c
3d678443
3e1c454b
3d31cde5
3cfe982a
bdfa6ae0
3dded60c
bda5880a
3c766e1d
3da7ba8b
bd33aeb8
3db8a9b4
bdbbccfa
3e031e93
3cd93041
bdf79074
3c45053a
3e8fec79
bd0480d6
3e1670bc
bd82e356
3e1c440d
3d5ad249
be05e684
be0845f9
3e1f380c
bd28ce6d
3a172b5f
be0f6fa4
bcedc974
3e5604dd
3d69a9d3
3e6aafe4
bc9cc2ea
3cfb4a39
3d9cdcbb
bde7937a
3d915fae
3e834696
3e23ab3d
3cf70135
be81754d
bc5f62b4
3e01a283
bf1104e5
bd0682a6
3dfea460
3c772c23
be5578c1
beb9c0f6
3d3704a7
bde86616
3e2c2813
3bff4b95
bdae1c01
bdab3eea
bcc874d6
3d6a57f5
3d9cc8cb
3daeb74e
3d8388d7
3e16ee8e
3e23aca0
be68f9bc
be0a1ae8
3ddef20a
3d9f2ebc
be02110e
3e39b184
bbe1d91e
bd7e1959
bda3ff5a
bd63f80b
be203fa6
bbe386c9
3e3c3f79
3df77e36
3e40dd88
3c8f0698
bdb4343a
3d2da45a
bc8882c0
bac0cdf0
3e0b0711
bd54489b
3c8d6179
be118eb2
3ce671ef
bc919edf
3e673c68
bccc8657
3d8df445
3c717a34
3dd213d3
bd6f9894
3df6510b
3ac93583
3da4856d
3d936b30
bc8d6445
bd261e24
3c1518e9
3e037d67
be05f005
bdf9f280
3d73f078
3dc145e6
be5b037a
3d0ce841
bba52ede
be0469d3
3e20621f
bdb7b352
bde8443c
3e22a4e7
bd448827
bd0716a0
bdd9c903
3e1e607b
bef408ff
3c614905
bc2b6abe
3e1d52b9
3db18cdf
bdd74f4f
3e62337d
3de6c269
3e148ad9
be91a577
bc2a4b1e
3d1022ca
3c05c31c
be054c50
3d83fb6c
3e7adff9
3cd9be1a
3e66c5fd
3ce79e38
3e209b4f
3d996eee
be17d9ea
beb84b74
3dedac7d
3e98b60a
bc194d96
3d15d0d6
be27510c
3d9b8280
3c9bb46e
3e827b19
3ebb0570
3e728f2d
bcc961f3
3e6b5d39
be36318a
bd0f90f0
3da4ff24
3ce605d9
3c5c9a64
bd34f996
bda8e9c9
bde21c12
3e63d731
3bf052a4
3e3dc6cd
3cfa7135
bbf1f1dc
bd01c3e7
3df3d180
3e1311dd
bb8f142a
be171416
be9ca631
be12cfeb
bd7089ae
be94d248
bdfceced
be9a541d
be65d9d3
bb959e11
3e473681
3d52d38a
bdb5f11a
bd302c45
3ec9c4cc
3d47a5a3
3ce24551
3df75ab4
bd89eabc
be0812ea
3d289ce4
bd775541
be83ccfb
3e27a1c5
be2990f4
bdabb98d
be08838f
bd1386b1
3d9feaa6
3e735f6a
3e305a72
3dad3d8a
be8c6468
3e0451a2
3da64fc2
be33100c
3e5bcec9
be985f0a
be8fe73c
3d3558c8
be8105f7
be4db98a
be2e6319
bd194c21
3d4929da
bd8c31d7
3e600406
bf278e0c
3e2f934f
3dd1025c
3e402586
bea87f2e
3d496066
bd9341ed
3d44b4d1
3ce054ab
3d8890a7
3e2f9142
bd2f66ae
3cd1e198
bdfdf995
be8e3f1b
3d918d02
3dc2ab84
3db33407
3e1bee5c
be05fda5
3e76393c
bc050d59
3d102bb2
be095659
3e09545b
bd6d1765
3e2a062e
3e558158
be6e2bd4
3e83980f
3d2eea82
3a043b06
bcce2e0d
bdf023fc
3e95ecf4
3dafa777
3dcbf400
3e3aae29
3e4c1271
3d8269ce
3ccb6a25
bcf73168
3d1fdcf4
bd685c74
bd85d29c
3d8958ba
bd51c262
3d017f0a
3d09b589
ba2e4f46
bd7dcca2
bbd507b6
bda4deea
bd92253f
bd4d6be8
3d7e347d
3c17fcea
3ced7b5f
3d793275
3d99e5b3
bd679550
bd6ac622
bc6841c8
3d3acad6
3cb55a84
3943a2ee
bcd6888a
b91c17fd
3cf44c42
bd1a0413
3d6379f5
bc3a407e
bda5a714
3da763e5
3da5a7f7
3d273d11
3cdbebbc
3cd0d458
3d99b418
3d87e520
bd95931d
bd3d8527
3d90a7f6
3aebc446
3b176b4b
3da8fb65
3d9c16e8
bd7f894c
bda8a026
3d06c1b4
bc7314d8
3da30180
3da90c3e
bcce61ee
3c4cedbd
bd7e7573
3d9b55fe
bda3e1e4
bc15bbf0
bd4ffee3
bd51ef11
3bd608af
bda57d00
bc1fb551
3d2b1152
bd8174a8
bd3e8163
3d2a167a
3c71a757
bd2ae11f
3d465660
3d88b99d
3cb4af05
3be7b24e
3d1207ed
bcc128fb
3cfdbb60
bda24dba
3d5c6e77
3d04dfe6
3d589cb2
bca7b371
bce3172d
3d3e1729
be6301db
3a08e35a
be0b7fe8
3e2a1309
be99e5a2
3bcce912
be2e02a1
bdb21dcc
3e076fd7
bd5a2d5d
bba2e3b8
3ecbd08a
3e00d67d
3e08009a
3dac7b1d
bd887390
be24b9b5
bc1d995e
3e023570
bda3806d
3d0e51ce
be655a64
bd222f84
bcd374a2
3d174680
3e8f5c07
3de61851
bd5dd6a4
3e2b1d41
be8146ec
3d96384f
3d1eaac8
3dded17f
bd832c2b
be94f73f
bdef4351
bce3259d
bde508ed
3e41d237
bdbf51d4
3cf8996b
3d875ac8
bc9a63ed
3e3b6382
3d68011c
be41c800
3c2fa02c
be0cc275
3da210f8
3e33cf4a
be81d385
3e9b0d47
bde81150
3d8b5b73
be16fabe
bc133365
3cdac271
3dbc6562
3da0b70f
be66b230
bceef41a
bd05f45c
bdcfab8b
be9ab981
3dd998f2
be038b57
bde122a7
bd59f70b
3dfd3347
bd97fec2
3e3da83b
bca3a17c
3e82bfe5
3e12d373
be7960e0
be298ca6
3cfb9a50
3d8cda66
3e2b3381
3d4ebdee
3dedee6f
3e4fe21a
3d3d472e
bdd8d9ec
3c8064b5
3cc44b0c
3de64ee7
3d5557ca
3d951a9a
3c412f2d
3e1fd3c4
3dbdc077
3e0456df
3e24fae7
3b22497a
3dde5d10
3d1a5a85
be136b28
bda59d72
bd84ef75
bd560501
be3c9e2a
bd40d9ae
be2782cf
3e01cc6d
3dde5092
be1c2535
bdb29cc1
bd466549
bed3b10f
3e52dcfe
be0249aa
bcb39911
3cbf6e2f
bcac6a20
3d9e2d43
bd8e55f0
be15705b
3d686ea4
bcbb8b74
3c3bae33
3dc349b0
bde9f4d9
3e2b3b47
bd5b0a37
3d5ad0d7
bc9ce3c3
bd91283e
3d140cce
bd9b55bb
bc8d54f5
bcfeb42c
bdb82b8b
bd16d6d5
bd580c5f
bd3e5a6b
be59da70
3e0dca86
3cd481e2
be0fa062
be0c9f44
3d2a34d5
bd98ba95
bdcd777b
3db16e38
3d660cba
be1de27c
3c480129
3c127e1b
3e058977
bd85b388
bdb3222d
3e29be8f
bc7cb2e8
bd9cbd66
be2788fc
bce93615
3e31836e
3cb83b4c
bd961937
bdca5323
bd1aa6a9
ba40279c
bc267233
3c99c885
bd6a0be4
bddf5b98
be0129e5
bcf40dcd
badf41c9
bd0f2cbc
3d5f83c7
3d156f74
3c0ffdf2
3d6d7085
3d74fddd
3d4c66e8
bd3ca4ee
bd650af7
bd4b4cc1
b91ec2db
bd5b0b97
bb0109bd
3ca57b44
3d9a6822
bcfa86e0
3db2678c
3ceb61a9
3c82226d
3da9074a
3da8d449
3ca3d2ca
3d4fa094
3da2002e
3d87778e
bd2f5ee6
bd73031e
bd389d2b
bd919484
bd21dd5e
3ce71f61
bd08e794
bc48a240
3da0b5c2
bb453952
bd14c090
3b4117e3
bdadee47
bd48e558
bd4320d5
bdbe13c2
bc3ead62
bcb87e8c
3d9f43f8
3d869ee2
bd690e81
3d8cacb8
3d854547
3c442d84
3b25c09d
bd728358
3bd033c8
3c393e16
3d2b5522
bd76d9b7
bb9c52db
3d1dfe34
bc66cdcb
bd86b905
bdb3efc1
3d8fc356
bb5b4002
3d3bedd9
bd81135e
bd938c11
bbf4ca01
3d72699f
bd44cb54
bc356289
bd54096e
3d6c2a71
bb283932
bce6a6ff
3d12dec6
3da5fc62
3db51471
3dad857c
bd0db195
3d7ec964
b9ad384c
bd5bff19
3b894bae
bc9fff18
bd8e3f28
bd30f436
3d1f0379
3da5a54a
3c47aa30
bce6dcc2
3d581e84
bd6101a8
3d16cd11
3d40fe20
bd1e0235
bd80cf05
bd123c68
3da6afb0
bc4bd260
3dc1e98e
bd9fc960
3d2a90a9
bd9a8082
ba49364f
3d8a0649
3d92f032
3c75deee
3d5cc23c
bd6aafca
bce6f886
bd8fae5b
3d8ab410
bcab1a1a
3dca2d37
3d149f67
bd50728a
bd59e9fa
3ca39575
3c89d53f
bdaabb56
3aa3ed00
bb844f39
bda373bd
3d5e5328
3dc7357b
3db346dd
3d3ff6a8
bc5d4590
3dbd9f4f
bd85751c
3ba06590
bd8aad27
bdab54de
bc2ada73
3c65af05
bd367de2
3d34f96c
bd3ebce2
bd769f36
bd8f7248
3bd4a28d
3ca1fe68
bd5a90bf
3cd7537a
bd900bf0
3c86cb8c
ba923a32
3d050579
3c405530
3b41d180
3d7a5299
bd289e66
3d0c0c21
3c4f28a1
bd9c4edf
3cba907d
bd29a272
3d14b127
bd344854
bceb53c0
bd4697d4
3d543eb9
3d7bd304
bd64d121
3b6ec424
3d6cb01f
bd278bbe
3ce3bb7d
3ccb8e87
3de8a75a
3c71a0d9
bd46c33a
3c2fa50e
bd714cb5
bd0ffbb9
3d5d57a1
bc95f360
bc8e21ad
3deb50dd
3d45922d
3dbd55a6
bc11a544
3e25fbc2
3d1f25aa
bd94670f
bd476d97
3db4c1a4
bcb9a277
3be058c9
bb80b69c
b9f75032
bcd48ec0
3d970ec9
bb26a899
3d03ee1a
bdc97710
3c8036f2
3d35044e
bd1d371b
3e023795
bdc94eee
bd7bd9ad
bda6007a
3d225ed8
3d09cace
bd37fcbe
bd97ef9b
bb174ea0
bce154f2
3d035a37
3db0326d
bd97987e
bce9f9f8
bcb6a473
3a7a366a
bce7a875
bca1298e
3ba87d4e
3d110f1f
bc3f4aae
bc1af6c5
3ce6918f
3ca7c15a
3d3af9f2
bd7a076b
bbbcb46c
bd142ca5
3d24cd75
bc994440
bd0a77fb
bda3dbd2
bd2c898a
3cd92f89
3c801adc
bce4dca1
bd815b95
3d3b3188
bb23936e
3da2730a
3d18526a
3afb77b1
3bf50e56
bd95a282
3d8a2468
3db8b07a
3cac35e2
bd33bdc2
bc978501
bd2d83ae
3d16e0ba
3d802239
bd4cb107
3d19a743
3c1f69fa
bd780429
3c2f2e11
bd14e3ea
bdd51cf3
3b947c20
bd1ea7fd
3d8f5a00
bd964dc2
3d43e508
bd44fd59
3d7179e1
bb83bdcc
bd9f037a
3d8439ea
bd407844
bd5fc9d4
3c0b4f05
bd548edb
3c3e6bdb
3db20128
3caafae9
3bb92540
3dd3bed4
b9af7ec5
3d4fc7a1
bc3bd387
3c7646ff
bd8b2032
bcf56a7c
3d2029e6
bdb7f787
bd7d2d00
3da40332
bc422df6
bc63d0c5
bd739360
3d5e1824
bcd24908
bc159a1d
3db97d84
bdb2be0c
bd0182fb
3c50fad6
3da58c16
3d431062
bc437f5a
3dba31dd
bdb43fcd
bd98f99a
bd8fd45a
bd8df296
bbe8bb2d
3d522d44
bd974273
3daab126
3d791a7c
3bc45956
3d62d23b
3bb981f9
bd7b8c9d
3ba24818
3da952ab
bd990c86
3c9af398
bcf64213
3cca6009
bd9c47c4
bc4e103d
3da510ed
3d4561dd
bd383f85
3cc660a8
bbff45ca
3d3adf74
3d9c1622
3c64887f
bcb4a4ff
bcbd8abe
bd2f58e1
bd5227a6
bca9fb78
bdf627bf
3af10b92
be02285b
bd71485b
be0262f3
bd23d5f8
bdc96006
be6f4091
bda680ec
be546c22
be6d5c87
3db5f48f
3dec3fd3
3e33aee1
3e01ed2c
3e2b045d
3d999df8
3e1678fb
3e107dcb
bdd65fba
bd9415af
3e0f1f67
3e8a5535
3e50de5a
bdad595f
3e7c047c
bcb6f479
3da93291
3db87d70
3e2be9b3
3d3c4be2
3ddb92c4
3e218e66
3df2eeb1
be06744d
3ddd146e
be75812b
be4f57d5
3d0e0461
3e6ed372
bd014014
bd797b82
bdb327c8
3e881feb
bde245d4
3de318db
bc95d453
3e4b3cb2
3c4778f1
bd96a82d
be2e17cf
3e2ba3ba
3e635639
3d976332
bd86c9d1
bd9031e5
3e30dc97
bebc8f24
3c58e7fb
3e2a5050
bd0bcb1c
bd5376b6
3d71bd4e
bce585a1
bd892e56
bd959133
bda6b884
3e6e1e15
3db66250
3bf5aa96
bde9cc2b
3d4e43df
3e1577ef
bd1ada0f
3e8e09b7
bd3798d7
bd626d72
3e2c9a53
3be656ce
3e1b2c01
3dc95223
3df2744a
bd37cdb7
3dff69bd
bda7a15b
3df6524f
3d8cdcee
be5dd723
3e1bb46c
3d46a172
bdb8f1ca
bbf008aa
bd738b3e
3d18cc82
be31c6e0
be2cbbed
bd28cb8d
3e4356fb
3cd027c8
3c29fd76
be71809c
3be54ce1
3d544cf9
3e05b705
be93a684
3dfdda49
bd9a0e72
3d87846e
bd8f1af5
3d8e3261
be42c0ad
bd60d202
bddeb061
bd9a539e
be1cd2a3
bec737d3
3bef3211
3d419de9
be7993c1
3d7c87dc
3dc22342
3d993ba9
be02f341
be10d6b9
bdb06c72
3e44ed2e
bcba187d
bd67e77d
be91a3d1
3e01884b
3d5823dc
be602521
be9124e8
3e37d3e1
be1975cd
bd038385
bd1bce49
3db71318
bcba7964
be031bde
be2b2e18
3d809187
3e042845
3e400a53
bd84a2f9
be16b9ec
bd553bcb
3dd5180b
be7f8298
3c813299
bd88f8eb
bd184014
bd95259c
bc8d566c
3d565df6
bd40bac6
3e543a2f
be75bccb
3e32514e
be4f5954
3c34b458
be47741f
3d9ff10e
3c10ccf5
be19db5b
be04070f
be98b90d
bbd507d6
3e318a44
bd4ec820
be1e9d3f
bdd513bd
bdf556d6
3d2c29b3
3dfd510a
3e410c1c
bdb98524
bdaaca85
3d32ce78
be9b6283
3e17e5db
3eb5f55b
3e2830f5
be104214
3e20edef
3ea84885
be5c22ba
be0e19e6
be23add9
3d4c9ce5
bdf94745
be004034
3ce126b8
be3c1457
3cd745be
3d87bda9
bd876a30
be19f9ed
3e619976
3de1d93a
3e11fdd4
3df6dc3c
bda0350f
bd9c7d7a
3db18041
be8257a3
be395cc3
be040861
bd996a01
3db307bb
b9f2b460
3e07353c
be89b9b1
3eb238aa
be528d21
3dcaf761
3e9fe592
bdb59a3a
3dd5eaba
3c3a9318
be426c4c
3c41610d
3ddf9746
be96ab4c
bde0986b
bc2e950b
3cebba48
bcfd47d1
bc69b48c
bdd65d39
3bd62ca9
bd9a275f
be8cd670
3d498b14
bd7a07ac
be0488f7
be0556b3
bd96fec2
be8140f1
bde4c498
be8e215c
bcba2e0a
be7c1159
3db4950b
bd59dc24
bd70ff9f
3e51338a
3d6c68f0
be320eec
3dfe6ab1
3d2e22a7
3be9a421
3e2c8458
bdfb2fde
3b9f83ad
bdb984a2
be52fa9f
be819835
3e3b3708
3d9f7e02
3e3ebb4a
be0067bb
bdec2311
3e788465
3bd56a73
3d2289b3
3da958c7
3d296463
3d56b4fb
3d884f0e
3d3197ee
be38ef3f
3de09983
be8bfbb3
bd6722ef
be3a0c6f
3d5022f6
3c61f092
3ea1b614
3df23a36
bdcb1e38
bd64b188
3e2de980
bce569be
3d8d3661
3d5f0796
be8830e0
bdf94e90
bbb63f7a
bda84b97
3d12a2c2
be4d99f1
bd3e9a35
3e0f7424
bde8b0e6
3dd45c31
bf192d00
3e8e6327
bd3281b4
3e39b78d
3daa470e
bde90a6a
3dca841f
3e7ce327
3dba5adb
be51a116
3e7cd58b
be148871
bcc16317
be0a0329
3e47711b
be44d5e9
3d207e42
3d713a72
be58bec8
be0c80da
bd8b8269
be26d115
bde18eef
beabe4ec
3d362e3e
bcf64f0f
3e8b4010
bc6e407b
3dc9a3b3
bc8df615
3b3f3a9b
bd0cd7e9
bcf18366
bee275fc
bd709b6b
3e7b2839
3a58d3ae
3e4cb025
bd2f995e
3d812957
bc7b43dd
bb77711c
3daba082
3c8fafb6
bc240a81
3d36bfb8
bd1905b8
3d36ce14
3ce61ec7
bda3c585
3dbaa857
bd4cb664
bdb2bcfd
bd23cf43
bd8f9b89
3d9ec736
3db1d586
3d816a05
bdbdcad8
bc5bde5e
3c420b89
3cdf3819
3d284290
3dc8027d
3d54b230
bd1078cb
bd9cf343
bc0690d8
3ca26af2
3cbd319c
3d3ca771
3dc3b4e0
3d64b2a0
bca5af0b
3db325e9
3d1f77b4
bdac13ec
bdbaa67d
3d28066d
bac21b80
bd044091
3db3200a
bba1c790
3dae4b06
bd8080c7
bd51052c
bdb3b7c1
bbd9a898
bca6e3c1
bc799e29
3dc05d48
bd0a4fe4
3c759568
3d63d478
bd653bb2
bd5b6523
3d96242b
3c6d0fac
bc4eb9b8
3d9b95b2
bb87ae24
3d840a26
3d0d4ba4
3ce2434a
bd5636ec
bdadfc0e
bd880a70
bd6e46af
3d7d3bec
3ca293a4
3dba95e6
3d80e00e
3c0e4812
3d5772f1
bc7b84f0
3d7f9ee5
3d97a6c8
bdce7268
3c8372fe
3dbfabcc
3d718ffb
3cc85b12
3d61a827
3d3993c0
bb0be45b
3b494756
bd7f6395
bcf0134d
3d492724
bbf3d4eb
bd95e698
3bfc3743
bd50f3e0
bd8ee814
3d9d0d96
bd5a8d99
bd5afced
baf23ac8
bc93a492
3d719071
3d11fed4
bd9c025f
3d5847fc
3d8ae78c
3d282347
3d1d138e
bda6f081
3cd4757e
bda9c8b0
bc76c9f5
bd81e431
bd9626da
3d476bc3
bdabdc30
bd9bf027
bb39bbd7
bd736f79
bc266744
3d0ed536
3dc7de40
bd3deace
bd36d922
bc864d45
3d6ff09d
bd868ebe
3cda2e70
bd441963
3cb89936
bd127ac0
3c62dd97
bb691c2c
bd542894
3bc97222
bd947a5b
3cf30722
3d30e916
3b898316
3cd542e9
bd374d32
3aa4f4df
3d8a499e
3d3da072
bd22bacf
3d6b48ff
bd34102d
bc3737a4
3c3787be
3d04cf63
3cb186fa
3d661298
bc0e0578
3da1c6a5
3d510ea0
3c998b54
3d0b2917
bbaa5f02
bcfd7a01
bd675e8a
bd7b9ea4
3cc0f9f2
bd74a66b
3d938ddf
bd3867b9
bc8efe09
3c8e0e68
3da61307
bd55045a
3d4e7f50
3e7f44d4
3e006459
be135cab
3da70679
bea166e4
3e1fcfa6
3d20d9ff
be81a8f6
be7dba97
3d9e4010
be05f2b8
be1a1401
bdab7ee3
3cac2c17
3e395d64
bdcffd25
bd2ddc9d
3eacbd12
3d877865
becfb6bc
be825c59
bd6a70f2
beb6d99a
3ce2d394
bdce660a
bdd5d223
3d220749
bdd0de38
3caceb35
be64d287
3c7b2f09
3e41ad8d
bbd495c3
3d95f793
be89e4b9
3e047b8a
3ccbb2c5
3dc5ef2c
3e0be851
3ec8a869
3d8c84b1
3e3d5e23
bd626616
bc3c358f
3ed9b115
3db7e0c0
3d30a617
3cb9ef8b
3e4330ac
be08aec0
3c4f8ddc
3d3a0a07
bec9620b
3d316065
3db9db49
3df62572
3d9205a7
bd93b0d9
3cb9c2e5
3d7e7ad0
bcbde927
3e6d2a9a
3dd45385
bdf41647
3d407281
3b8591e5
bc08159c
3dd2bb84
bd0da72e
bceea53b
bd85b066
be767ec9
bdc382da
bcced3ea
3de3080e
bca29f78
bc6ba9a2
3e180e38
bda5def0
3e2f4584
3ce657cd
3e8932e6
3dba5b9a
3de406e8
3da63d1e
bc676ba1
bd9a83e7
3d675ef1
bd65532f
3d57d8a0
bd871ca4
bc68c3f4
bd608cb7
bca5c52f
3daed353
bda468e7
bd846d97
3d624ddf
3caeff18
3d8cdfe0
3d8d6a24
3d5e5368
3d4d1047
bd30a64e
bd9c68f3
3d308b44
3d5ffa70
3d9b2319
3cb0de24
bd312661
3d8dd1c5
bd42d6b4
3cc2dbb4
bcfdf9af
bd726aa8
bd2c7ce7
bd527153
bd6d4545
3da37097
3cd10ed4
3d3b7077
3d824d44
bcbb94d0
3d0e399c
3d4a98c4
bd009508
3c7da225
3d70ba6d
bdb7f5b0
3d88d9c5
bd7ac08e
3d26abee
bbcc2f70
bda88909
bd97da52
bd111da4
bd9e1b78
3db77282
b980c700
bab9a0fa
bd36af6f
3db7bf8a
3c89443c
bd276353
3caac9b6
3d5437cd
bd53a329
bd9f82a4
bceed165
bc888210
3c9b9d64
bda49162
3db2eb32
3be87aa7
bd1568ed
bc665210
3d969773
3b4a6441
bd8daf25
3ce00e84
3d9ec6c0
bd95a08b
bd919424
bdbf6515
3d9a6cb8
3da4f073
bd1af3ea
bd2a8b66
bd9341d1
b9aee087
3d45a7ad
3d3c4bbf
3aa90dbe
3d8cabd3
3cc1b178
bc47d851
3c8855be
bd69bc5d
3c3da3a0
3d813df8
3bd5ea49
bc4a9c21
3d466533
3da32b42
bc2f2b82
3d54550b
bc8823ec
3ca78b6f
bdcfcf32
bd70d3bb
bc5a42df
bac79c15
bd12bc63
3d9bf0e6
bda5328c
bc81eddd
3d9bcfcb
bda05368
bd9cebd5
3d85fce7
bda65bee
3c968270
bc5f8641
3d6df5b1
bd155acc
bca250ba
3df9da12
bd7000e6
bd0860a8
bca13db9
3daf8b70
bca94093
bc0de1fe
3dc5fe8f
3dc86090
bc9cfe31
bd753571
bc795ad0
3d16b73d
bd76b532
3d66d134
bc9bdb5e
bd5ecf34
3d3329ee
3ce185c2
bd4fe3a2
bd32ce0d
3d2e1458
3cbc9ab7
3b8e9e75
3cdabf1e
bd83e28c
3dae28d8
bca84dec
3c88d9fc
3d30e742
bced19ed
bd8217a3
bd436e2a
39ca5c8c
3d2cf963
bb932a06
3db1df3a
3d3e6b28
3cbab278
3d32c140
bc75fa9a
3dad858a
bc05fd67
bb87af94
bbc0f9d3
bccc88df
bce5accc
bd218f7a
3c8c23c7
3d351c78
3d9c103e
3cd016b8
bdae3bc0
bdaef343
3d81de1d
3cc1a7ac
bda6cccd
3d9d71b4
3d356a1b
bd968332
bce29f49
3c39d882
bcc3f3d1
bc9a9328
bb074a85
bbb39fa7
bd4d0286
3d4d90d3
3dacef76
bd65f054
395fa800
3c10a9c1
3d4afc9f
3d28d1bd
3d9be66e
3d73779e
3d727bc8
3d79e667
bd428bfe
bd34143e
3a72e0e4
bd7183f0
3c1e0721
3ca4a39d
3d8be861
bd490efc
bd06e46f
3d47cb14
bc14cef8
bcacf4a1
bcff59ea
3da9263f
3da8a53c
bd25874b
3d05bbc0
bd041c0e
bda2c0f6
bca10a07
bd3c6145
bd2cb7b5
bce18b57
3d8e00ae
bcb73a44
bd9c6909
bd12c8dc
3c7fb287
3da42c90
3c7113ca
3ce9805d
3db5b641
3d1b1820
bce20d9e
bd43b9b7
3d39ccb6
bce51cae
3d1fc27c
3c927859
3d25436f
3d6148fa
bcebe76c
3d227e1f
3cb8861f
3a85d080
3d919f32
3d93f0d5
bda7cfdc
3bc02820
3d06b525
bdba2f40
bd330d19
bd05b237
3d9fdc05
bd02a109
bcf19bcf
bd56b3e8
bd9ca60b
3db8b240
3cf9ee11
3d939a6e
3da1aa25
bd0ed687
bd826006
bd5578e0
bdad10c1
bbd4de1a
3d2d0661
bdbfc094
3ce36940
bcb883f2
bd5c1d6b
3d872060
bca5fb82
3d1be404
bafb3022
3ab438c0
3d1bb998
3c89efe6
3c26584d
3d46ef2e
bcff1a84
3d2c9593
3db77686
3c571dba
3d068346
3da7cdbe
bdad7298
bdc4e763
3da56eb1
3c045484
bb1e23a0
3d10d7a8
3ccb0a83
bd0362fe
bc49ff21
3d84a586
3c0ec68f
3d690ea6
3d3526d9
3d4f98ec
bd31c6ef
bda9c602
bac88788
3d7f2c3c
bda59cad
bd9edc0f
3cbd4d84
bd2b316a
bda38d83
3d020880
bd1b2d9c
3d188820
bd55e2b7
3d585045
bd36f794
3ce6fe06
3d29b5e5
bc8e96a8
bd2b4a45
3da3c6ff
3c44626f
3d908afe
bc5e618c
3d736037
bccc2951
3ad03b31
bd0aba26
bd79a0f2
bc150094
bd515993
3d05695e
bd57fa05
3d36eae7
bdb58dac
3dac60fd
3d706450
be43ce70
bd0c49b1
be3789c4
bde75797
be2ff5f4
3e0d3ffa
3d838b87
3d54b2eb
3bda8108
bd82768c
3e97f95e
3e167270
bda06b03
bd2f4cd6
bee53e60
3e73c5c5
3b4d5e57
bd0141a3
3e01eab6
3e93fcb2
3d0bc32b
bd8e5dc4
be546fec
bbb3cc3c
bdbe6a22
3e450f81
3e1053bf
3e07e441
3d268726
be38063b
3e11a760
3d971c56
bb8c76bb
3d23e3c7
3c64c492
3e30e730
bd39683f
be10f243
3d1e0e19
3b3207d0
bc83396f
3d3ef823
3d28aa82
be5f9827
3e502c1c
3c91a55d
3e3dc325
be0493bd
3cce9a31
3d96b089
3c3fbef3
3c93dd00
3c91f0d7
3e190deb
3dcfa004
bdf8397e
bd736eef
bc613f99
be150792
bdfa465c
3e33f596
3d141aed
3e121d34
bd8aef7c
3e0cf17a
3d0ed7cb
bde25c9f
3d9ee58a
bcc84a15
3ca61730
bdf52205
3e72e11c
3df2c51c
bc411307
3d260bb1
3d3017da
3e67638d
3e1392e3
bc72852c
bd540073
bcdfbba5
3e0e26db
3bf1864f
3dc0f265
3daa7640
3c99b41c
3e00b6fc
beaeda77
3d9731d9
be4ccf86
3e279f89
3e7e42d2
bdd641c2
3e4abe36
3deda4ae
3d103c15
3d6553f9
bcdd7753
bd909caa
bda7d33e
3e867bb3
3e2a61bf
bda809c4
3e467cb8
3d51ecde
3d8896d1
3d87c143
3cdbe2cc
3eae8a21
bd2c1604
3e1137de
3e0f6d41
be8dd004
3d7e0782
be327bdd
3cc3df86
bcecfd09
bea48c96
bd1e0127
bde7acfe
3df990d9
bbe0ffeb
bded69cc
bde36a12
3cece5df
bd3277e3
3df5d43e
bcde720e
3e682788
3d92d325
3e759d83
bd94c9e0
3e275f8b
bd989be6
3e2bd1af
bd9a040b
bdef72db
3dcdb123
bd81be02
be51f125
3d4296e2
3c8561b1
bdd3eb68
3e2443b2
3e6f85f3
3e311e52
be63b5c9
3d871297
3e9ff068
bd4c4fb3
be23944d
bde0712e
3d40116a
3b755c1a
3ea4ab69
3df40b1c
bd221f8a
3e26b4ff
3e2497ff
bd65ebb3
3d9db2a1
3e87f733
3dfb1329
3c87808d
3de25f0c
bd57559e
3e8cfb06
3d15d482
3d420bf5
3d07778b
3da99891
3db79517
bcf177c0
bdb3f8d5
3d251192
bd3455a6
3cfc827a
bc52971a
bd284faa
bd3be648
bd0c4c08
3cc36efb
3d44ddf4
3d9d9901
3c3d523d
bd71c6c8
3d07da19
bd8e52bb
3cb44ce1
3daa96ea
3d0cdf1b
bda97832
bbfe6091
3d628bf3
bd88f9d0
3daaa524
3d2479bc
bd9ef2b3
bd39d18f
bc83541c
bcf32193
bda25a04
bc918ca2
baeb5c25
bcc41321
bd6be484
3d58c41c
3ce055c8
bd3a0a28
3c68cb38
3bc61a67
bcfc28ea
bd967e83
bc3e6198
bd862273
3d5e6988
3d335110
bd95e16d
3d93e5f1
bd0d1b5a
bd66fe7a
3d46811c
bd878de0
bbd2b551
3c9a48d3
bd9ae0c9
bd50c186
bc84bbe2
bdaefaf1
bd4f809c
bc6153ce
3d272cc4
bce5c7db
3d102730
3d9c9de3
bbe3331a
3cc227b7
bda5884d
bda3f7a5
bd879524
bcb801bf
3c995ebc
bd9f1a79
bd94ef20
3d46af01
3d863998
bd9c1f20
bb959db9
3d9879f4
3da5604c
3d385714
3e871660
3df18e08
3ce53301
3d172e99
bea81308
be6c7245
3de05f20
beba761a
bd5fea12
bddb9260
beb697e7
bcc287d1
be0af613
bcc5df0f
bdb785ae
3e9bb4a8
bda6240a
3de7d00b
3dc1266c
be639606
becce061
bea153ba
3c569885
3e329986
bc6b6105
3e1e6b87
be2faff2
bdb8c71e
bd4061a1
be6b7d4d
be919bc3
bab03a29
3e0cf6d4
b9ff4cdb
be2acfd5
3db7623d
bce11a51
3d25f8cb
3dc0800e
bd5e2d94
3cee5b5f
bd352f67
bdb3d8bf
3e650c6c
bdce0926
3db731bc
3daa0db2
be2d0ca3
3d46dde2
3d2ffd3a
be63e0ec
3bf6dbe0
bdafa7ec
bd18a64f
3a66ff4d
be3b5ad8
3d77769a
bd425985
3e2e5477
3dcf60ae
3e05e79c
bec98997
bb99d6fe
bd4c379d
be08c42a
3cc11b51
3d776775
3e11bf45
be863b89
bd0bfaec
bdfc48c9
3d661f48
3dc90de4
be6e915e
3caeb14b
3dcc9105
3d7e7aa7
3d176a39
be3d5868
be774dcc
3d13f4f4
bd4e0e57
be30bd8e
bd9fb719
bea68fb6
bd49a9cd
be0d5f9a
3c8f0d6b
be2a9015
bc0392a0
bd0ed07b
bc11ff61
bdd3d676
becdcf51
3e609ad3
3e25520a
3d087bf9
3dc3e198
bd9f5009
3d350003
bda57744
3ddd864c
3e3b28d9
3d53c19c
be6a0662
3d6ebf33
bd84b03e
3cd92db9
bdb0412a
3dfcc622
bcb8eeb3
3da20d82
3e78abd1
bb8f84c1
3d010c51
3e0d3490
3e32f88e
3e2e31f9
be3b144e
3d875c04
be8aedb3
be38859d
be1a1069
3dcb2a1b
bdedbbac
3c5f7eaa
3bac41e0
3e80a0ff
be6258f7
bc9adfa1
be4a4d95
3d88d6f7
3d5744fa
be62559d
bd488408
3d3ed32f
3e3c93d8
bd81073f
bdf846f5
3d825b71
bb765088
3c8dcbcc
bd3446ac
3da28e3c
bdf3315e
3d6ee52e
3baacc88
bd50db4c
3dcfad8a
be8bf3d5
bdb8a510
3e2eb215
3cce44e0
3cfcf7ee
bde6809e
3e0a016b
3dff15cf
3e153ffe
3c47f284
bd572402
3cfcbde8
3e95b5a4
bdf80453
3e84fb19
be0c6c82
be18eede
3d000866
bd2652ed
3e7ec7f1
bc06294f
3c33aace
be2d610b
bcddab9c
3d1d74c5
3ea37dd7
3dec8172
bde2ac33
3e03fd10
3e155a29
be08f054
be26ea14
be2fae3f
bbde71fd
bbe0b607
3e2bc722
bdbc256d
3d8e5e8e
3e0b2a0f
3e0049e9
3ded91c4
be0344c7
bac2f2dc
bd244d32
3d5adc04
3d966bed
bd371c47
3e80fe14
bda2f628
3de41603
3e75fc1a
bd800b96
bd9db222
bda8393f
3c3c9fda
be72abeb
3da0d263
3e160ab4
3e137ef8
bd0ee0a1
3c1bcb0c
3d79bb01
be824b04
3e62ee63
bd54fc30
bdb5ff1c
bd300f12
3ddc8dcb
3e01f34d
3eada3fc
be86d236
be3d4b3c
3deb2c4d
3d7ae224
3e3e4927
3cc5b07e
bdf87504
bdf3b15a
3d797e4e
bddf2eaa
bc7b4a3d
3d7d0397
bcb79a80
bd673c65
3daca8f0
3c8699a4
3bf4849d
3dc81215
3ceef704
3ce608c5
bdc2c026
3dcb32b0
3d1bcba8
bc226975
3ca0119f
bd949d3c
3cf674e4
be152d9c
3e6bb7e5
3dfe7f6b
bdbf62e0
3d763184
be5aee6a
bc63902d
bd38d753
bd539bc5
3e38226e
bcd0db1e
3db919a7
3e83ed9a
3da07add
bd38adc2
bd8964db
bd4b8f5a
3e884416
bcbf09ca
3d71bec6
bdd4be52
3e70ee5c
bddf8b85
bd8800e6
3e340738
bd4b0a6e
3d273030
3d55a524
3e8e6ac7
3e83d5eb
3d200b2c
3d59f1fc
3e108a96
bce0ccb2
3e6f1537
be170b33
be6a2ca0
3e3190a2
3d8461c4
bde91f30
3d2aa18e
3e14edca
be04d957
3d3df9e8
bdc05f7a
3e9fabb3
bd8384ea
3d7349e8
bc801848
3e9497b8
3f281a15
bc29bdb7
3e51bb75
3d8edb5e
3bd1fbe7
3db109f1
3d9b5dad
3d2ad274
bec0bf74
3daa079f
bd12b7ca
3deff993
3dbf5274
bca0d95e
bea2bfcd
3dcbaa37
bca63d96
3e561662
3e841ca4
3dbc1929
3d6d5213
3d857e92
bd861759
3e18701c
3dc8119f
bc8040f0
bd5906d3
3e495558
bc5745a6
3e3367cf
bcdd4625
bc153d8f
3cc5ad4d
3dc17fb4
bc2111d1
3e08f528
bd321fca
3cac5836
3e6bbd0e
bd9685bf
3dc4237e
be106ae6
be8fed11
3e0e6f52
be67f2d8
bbb6a372
3e8d8a17
be42ec52
be04999b
bdb8f90b
bd011d3e
be12c36b
be08b120
be1a566d
3e572b55
be71209a
3de5bf7b
3de6af8f
be8334ff
be4864a7
beda835f
bdeabdea
3dd97229
be1a3370
bd0bb660
be2d6adb
3dbcd698
3e19f986
be6523e4
3e6c6597
3d86c909
3de59339
3d351951
3e3fc584
3ea34ee3
be9a6464
3e3ee945
be9fa7f0
3d35f589
bea4c4e5
bc3e56ca
3e219ad4
3c238436
bcd544e2
be0faa50
3e32ab31
be248681
be052b52
bcc69c95
be4e3a95
3e99ccf6
be29b5f6
bdd69653
3e04685f
bc6f9d7a
be0077f6
3e470af3
3c849a08
3cd43448
3bddacff
be302fe8
be021318
be620dca
3eb26495
3d94cead
beb03a24
3cbb4380
be095a16
3ddd658d
bdb3a8b3
be7f86b9
be377411
bc362ba8
be3bf7e9
be0decda
bd49e637
3d1fa382
3de9a13d
3b6090ad
becb8344
3a073a4e
3e599787
3e393b80
be2ccefb
3e489a3e
3b42d7b4
bddb713b
3e1beb94
bdc50499
3dee9f9f
3ab7daec
3d226800
bdf5fead
3e29aa05
3d606419
3e6995f4
3dc5a133
be9349a7
bd44a58a
bda98f52
3c7a4ea9
bd74ae3e
3ca2e412
bd2300f4
3ccf7208
3df84d2e
3d0cae2a
bebc959e
bdac6f9a
bedea79b
3e7f1a77
bc7425a2
3dbdd4b8
be08c4d4
bd8a6da5
3e9a3976
3d2bc210
bd11a031
3dd5f436
3e0ea691
3cadf48e
bae08282
be59ef0d
3e23d9d5
bd4f959e
3d2c0257
bd98d690
beab8fa5
bcbef42f
bb35463d
3dcd1eb5
3e02f606
3dc45186
3e75fa65
3e3c31bd
bd54bdd1
be54921f
3c4e97cc
3e737f24
3dff7685
be8a6e62
bd70d724
becfbc5a
3d72224d
bd9149bc
3cd75de6
3d435c6f
3d11a300
3d750253
3e2aa739
3d1bd91c
bddd78ab
3db0ebca
bdd1751a
3e1be8a0
bd10a188
be0fbadf
3dd69324
bd98a144
3e183540
3d0e12de
bc943bd5
3d9ca118
3dfad6cc
3d2c4e0a
bd024b47
3e780ba9
3d4cfcfd
3dd2ed3b
3dbf26b9
3ddaaa63
3d478ae7
3dfa64c5
bd54f17a
3dd4df6f
be3f273a
bd3afce3
3db4054f
bd86951d
bcc001f5
bd803815
3e1a8d0c
bdc935e6
bdd9a1a6
bc8f70bd
bea9f3d2
3d28ab38
3d4af116
3e574545
3d54c2ea
3d678466
3e07ec00
bdbab6eb
be6f0fbc
be0f5b96
3caa3d6b
3dc7aaac
be23f095
3de863dc
3e0b0ab6
be25fa31
bd185988
3df3ad40
bdf3d368
be0ad26f
3d67f46d
3e17b68c
bd62cdbc
bddc2789
be52684b
bda7dd09
3c963317
3e070d1b
be6cef20
3e032e82
bd12571b
bed32784
3e0e269f
3ce19063
be8870bb
3e88ed89
3ca8b205
3d5776fe
3dd31c2a
3d89e6b5
3d8d4771
bdbaf490
bcc17806
bc878cc4
bd149dec
3dc03616
bd88d4cf
3d5314be
3e440dae
bd6e1ad5
bd535364
3cfa66fe
3d121a1c
3e06e755
bdacbee5
be03efbd
3d24b078
bd7b03da
3d9bb522
3b65879c
3cd1f4b7
3e2b228f
3cc46c32
bdaa25cf
bc79736a
bd35d7c9
bd86aaf1
3dd2b999
bdbad6b4
3bd06491
bdfdafa5
3daa9a28
3c0c56da
3d8c8f8b
3dad69e3
3e1bd21f
3dec80f5
bd001ba6
be4aeddf
3e0ca5a3
3e074072
bca4366a
bdfddaff
3d99a1f6
3e0051c5
be697a32
be74d060
bd1f41d5
3d787553
3d5cfe37
bca88261
3c991e60
be00ab56
3d763000
bdcdece0
3dbcec0f
3e48c72a
3defedc1
3b9cb534
3e6e0ebe
3dceca80
3e34827c
bc2d2954
bd08a9c2
bc9c55cd
be60bdb9
bc4f10d3
bc42a6d6
3e0c0619
3b9b9090
3d0b80ab
be512050
3c2bc818
bdbc4bce
bdfd373e
be13dfe3
3db9a558
3db1cbe1
bdf9e67c
bd61f4fb
3e18f6bd
bd88bc67
b9d5c520
be01194d
3bc662ed
bd994ebd
be3f4c5d
bcd60ee9
be24c809
3df24fb6
3dfa7452
bc5842ef
3e1596d5
3c1a4b29
3d275f3b
3de779b0
ba82a2e5
bdfada96
be1790e1
bd401a56
be99c70e
be1a49b0
3dafa397
3c8e961d
be21de14
3dc66fa2
be004414
be231239
bd092819
bdf0ba3d
bd99bf74
3e83d647
bd8d2965
bdf2064c
3eb607d3
3e51041d
3cc2e43b
3e0c312e
be0afafa
bf3e3697
bb94dd33
3d288071
3e1fd899
3d43abc7
3e236a7c
bb58a8e3
beb06e15
3e9a78b3
bd282750
be9e7336
3d7a2a9c
bc7f3520
bdff900c
3e86e341
be687329
3b680b20
be343507
bd698ea0
3e519ac8
bef2275d
3e20f3df
3e1ed077
3e85d84e
bbc9b039
3e10fd1e
3e8e54bb
bdb51430
be897637
be01cd1d
be3c7aee
be9cb5f0
3d540c0f
3e9876c4
3b91ea58
bd638cf6
beab4c18
3e7114bf
3e16f025
be9c56a0
3d38cf49
bd5b80cf
3e96692b
bd0e07be
bedb682e
391812b0
bdefb5f0
3e35c6d3
3d5b8411
3d805fbb
bd1e0193
3bcefa61
bef94812
bf1bb028
be63f057
3e4a4b84
be2839e2
bdaf7abd
3bfd337b
bdc960cf
3dfd3cee
3d4bbc9b
3d7b8dde
beb4eb83
bdcdfcfa
be122bd8
be56dcba
3e660e78
bddd6331
bed70a75
be57948b
be8125ce
3d5ddb12
3e44c023
bd815d6f
3e33bbae
bd36268d
3d730f7e
be31ad4b
3d47530a
bc05a00e
3cfad766
3cebfee4
3c938bdc
be6d8fd4
3e1f98f2
3bb88392
bdbf83c6
3ce2bb33
bd454f33
be016701
bdbf402d
bd8144f9
bcbcd592
bdcd1c72
bd0cf86b
be0525ab
3d68bab7
bd961cf1
bdab88be
3c2660b5
be787af3
3df62586
bddfd4f4
bc7e7d48
3da91e4a
be211a73
bcbea576
3cae04a1
3ca4dc52
3df6bea4
bbfbdf8f
bc15051f
bc8b16aa
be0772cd
bdb83d83
3ba0f73e
be0cfa35
bd8d6d84
be4239d4
3e5d76bb
bd4c2d8d
3e3ccaf6
bd032a73
be35d359
3db612d6
bc64b0f8
3d3826af
bed05e4a
bd4928e9
be1bc9bd
bc25de2b
3ddc59d9
bb0a4002
be4e9a21
bda3ce95
bd4b3a34
be0ccc02
bd11b812
3db499f8
3d9cf554
3dabf777
bd22c41b
3e5a4f89
3e26d9ac
3d183be5
3d73df86
be6c3449
bde26507
be043eae
3da39428
3dcff3fa
bceed527
be58554b
bdeacc58
be759b44
3d900c35
3cead20b
be906fe3
bd0c731d
be0c9024
bba27bed
3e3426c7
bc87409f
3da97dd1
3e146b48
3ceb0e61
3dcd2c78
3cd729b3
3debf729
3c88b8d0
be3eff8d
bd7cd87c
bea8dc13
bbd2b2fc
3d95b3bd
3de3e7e5
be8b5de1
3c6f27b0
3e170ba8
3e326529
3e5ad08f
3e0c35ca
baf24c93
bda64cf0
bb0ed105
3db9ad21
3da80578
bd80573e
3df294ae
bd45ed6e
be1b8daa
3d830376
3db34cad
3d1975f9
bd95d285
3db4f928
3e1241b4
3d628331
bdcf4c16
3c02dcc7
be5e0a8e
bd1070c9
3c82476d
be2088e4
be5eb9f8
3cb0a268
3d70b4f9
bc268f4c
3cabdfa8
3d4f100c
3d219c2c
be06cb6d
bd0075c5
3deadc94
3d18bae7
3e476f68
bddc8df9
bdbdc9fe
bba6bb9d
3d7da64d
3ba50687
3dcda240
3ddad66c
3d411ede
3d4aed22
bd83387b
3d780045
3d9ae4d8
bdc176e0
bcb83287
bd8fd8cb
be606de3
3c9ed249
3e16c798
3dc3631e
bd979532
3d524f4b
3d8ed915
be6df220
3bad39d2
3ddbc1e2
3ba075ae
bd97cd92
3dc436a7
3d0677cb
3baf4365
3eaed644
3cc6cba0
3e7271d5
3e256b41
be188b4d
3d94c94e
3c914afa
be3b5940
3d928ed3
bdbab7aa
be43dd69
be6bd2c2
3e66bd92
be0043b5
3d4faaca
3e3a81df
3cee086e
3e0f0463
3e3f8dc0
3cb7d28f
bd64d4fa
3d0e70ec
be558f91
3e1cbef0
bde7f7bb
3e2e724e
bbdf174c
be1f1240
3e50c9a3
bc6669ae
bd9c22ef
3e375147
be83c76d
bd88431b
bd072511
3e7a9f53
3ea5c266
398775d3
3c96579b
bdb79027
3e63be53
3e0f437e
bd7e3ee4
3e0afd5f
3df3a528
bd3d7324
bda7880c
bd648236
3cdcb46e
3e1afc3c
3d8f2cf3
bd8323fa
3afcffe8
3c183b4c
3c6068ae
bd7856ab
3e66ec56
3e8538ce
3d1ac5ca
3e3c2e2c
be4fba64
bcf6672e
3c8c98ee
bdc15c55
3e4f8a72
3dd6fee1
3ba85544
3de9d3de
3b26a644
3e3d426a
3d334dd9
3e75ca96
bca3d991
bd8b62a6
3e150a91
3d54e8c4
3d9081e1
3e265534
bd751f17
3defc271
3d8a10d1
3d55fe26
bde2a93f
be8ffb1c
be8a4a7b
bea91a9a
be08e75c
3e163a4f
bd793424
bdd1ecc5
3d986a4e
bea94c44
be431b83
be6cccd5
be7c3b7f
3e40d1da
bdfbb430
3bb59680
3e46fe17
be11b184
bddb021f
3d094ab7
be74802e
3e5c283c
bd057594
bde2a1b2
bdac955b
3c969a69
3e038c37
3d261127
bd60abc1
3d36ce2a
3e6098dd
be16dda8
3d62a885
bd33e37a
be3a8317
bcdd6b34
be46dbdd
3dfedf5d
3e1c3db0
3d87bb4d
be70d6dc
bd31c122
bdf46ba4
beb333a4
3df0054e
3d91d768
ba804d46
bd4c1b12
beb7662b
bceb406a
bdd836f5
bead41e0
3e5ea264
bd2ee337
bd43f109
3dd61cd3
be6f958b
bd1f8b40
bde9197a
bdda654c
be57b831
bde44d56
3e1608f5
3e93a597
bec2ffdf
bd492a56
3ceb3cef
3dafac8e
3c2f1469
3d51462e
3cdc86a3
3e317a57
bd676fec
bd9e8ead
3e1fbabf
3d44c721
bc88a31b
bdf552cd
bdd544d5
3e74a9d3
3d9a52af
3e258866
be75ed4b
3bd057f1
bd7ccf67
3a315c91
bd095c39
3cd2f4f5
bca43940
3daf1ce5
3dae2b85
3a32bb09
3d044d04
bd8cf481
3c5b1c48
3a3c41c7
bda6921f
3d8c0801
bd0df7a7
3acf2813
bcb91514
3dadaf2a
bd1c8cad
3d3fc896
bc45cafc
bdaf50f6
3c9d60b6
3d90147a
3d65539c
3d0d18d8
bda7f767
3c6c5757
bd2bb795
bca39893
bd2b60ea
3d2d361a
bd8e56bb
3d72a001
3d8cad4e
bd91c256
3cd132b0
bd9aeb11
3da9da58
3da47de2
3d6fbb8e
bc7fb988
bd36f0a1
bda97a4c
3dacdaab
3d91ad22
3d452f03
3d2550dc
3d78c83e
bc879777
bd875e70
bd7ac4ea
bd8cde51
bd0eb10b
bcd5a6dd
bd3a12ed
3d0358fc
3da7485a
bd15b6ee
3d08c397
bdbe6b5a
bda46af9
3d824a3b
bd78ea1b
bd9603dd
bdab76e0
bcc8b462
bd33f387
3d194aac
bce7cfd8
bdb80661
3ce3e752
bd050027
bd798ad2
3d358c67
3d123e0c
3d3fbc27
3bc1e952
bd413acf
3bb0ca14
bd9b4fb5
bd8af544
bdaef714
bd5e654f
3d9abcc7
3d9fe9db
bbef02b2
3bad0782
bdcb620e
3d19cc49
3d577414
bd760d0d
3db1ffbb
bcd0eae7
3d6c1184
bc1d2ae9
bd69b352
bbe4209b
3db8ea08
bd7ff9bd
bcc16b08
bd509f7a
bbe6ae10
bc8c05da
3d52c95d
bd5a20a7
bcb0215a
bd181a56
3ddb1054
3d44abab
3de3419e
bd2775fe
bc76b026
bda711c1
bdbba689
3c6c00fb
3da8e9b6
bd3df7ad
bd85e677
3c6e5509
bc726f70
3becfc32
bd36cf38
3c9b0948
3d1dffcc
bd535b69
bce35d1e
3b135330
3cdd5fcb
bd6185c1
3cc97fc1
bd2cacd4
bc7f8da2
bd74877e
bd2dece8
bd484319
3d85fca6
bb0c5a0a
bd73ea7b
3d281240
3d199148
bd6fee84
3d520bae
3db29709
3afcef59
bca31676
3d90d672
3d5e221b
bce78ee8
bd0dfd01
3da1ee11
bccbc5a7
bc4ecd34
bd999cca
3d20a8c2
3de36736
3d68b1ef
3d32d597
3d4819da
3d9301ac
3d6b2209
3d4ab773
3ce7013d
3dbc3621
3c3f32b9
3dace63a
bd296fcd
3e360250
3e6c2d95
3e6b4017
3e031007
be36d2b9
3c309d97
3e24c4e7
be30b378
3d295613
bcfd3f86
bd8cd710
be370d12
be607dd8
be804a7b
3d1670da
3ed0861e
be5d2027
be1f64f4
bc15fdb8
3e6acb02
3d9b9303
bdb795f8
3e22ddad
3d5925b5
3c908664
bd318ff4
bd3067a3
bde1ba4a
3e3120e9
be5a3f8a
be265116
bcef0a52
3c9a252c
bd5c8e24
3d5722dd
3d76dffe
3db7f159
3c98cc1a
3e4ce427
3e18e0e9
bda4db90
3e5299d2
bdb05b50
3dfcf805
bd5dc680
3e07e253
be79845c
be600382
3e69ee98
3e2a1e92
3d3a92a0
bd9f2c6e
3df1e0e8
3d9a69b2
3e4e304a
bd5eea0f
be8acb02
bdf1d91c
3ececeaa
3e3d8995
3df60763
bd81a0df
3ea571c4
be73e5c1
3e0d5d12
bca9ac79
3d0231bb
3e347447
3bb5ba56
bd823a35
3d4edae0
3d7810ad
3c9cf0ea
bd9e2a4f
3d907393
3d6b1235
bd0e9173
3e0d434c
bdc37e1c
3d41b1b8
3ea12cb2
be9a14b5
3d826cc8
bd820abc
3e09ae5c
bcffd5a2
3e3a61db
bd02f239
3e7dfc73
bc950497
bdc85ded
bc2f7167
3e26c037
3d88296e
3e5cdbf5
be12e57d
3e78c0cd
3e104130
3e24ff42
3cd40dd8
3d0edb4c
be2b7c5a
3db49808
3e2838d3
3e0318fe
3dadfb45
beb218c5
bda2b44b
bcd1a52f
b9fe41e3
bda2b8a6
3cb2743d
3e4a4fee
3daf4b47
bbea6ddd
be36d118
3e7405cb
bde6db00
be4f6797
bdb959f1
be03ebe0
3e2724f6
3d1f2ea5
bbcb850d
bd51e0e0
baa8d4b6
bd0b18ab
be449feb
bd489052
be5b01c1
be8f35cf
be1ff238
3db8c5b3
3e115d56
3e180dad
be3808c5
3c5438a9
3ca459d7
3d6fa085
bde8b56d
be6aa516
3e3ff761
3e78bc1a
bd7c72e0
3e228e04
3d61e253
3caf5aab
bcfa5040
bd0ceeaa
3e2a68b2
bdd950dd
bdbf652c
3d8c05d7
bdc5126a
3d0c5de4
3cbd1947
bddc6580
3d2393c9
bd2cb02b
bbc86703
3d086251
be09e29a
3da437fa
3d5921e5
bd9edcd3
bea85b0c
3dd2bd10
bd82bb25
3ce6ec55
bd13540a
3da27342
bdc88803
3e673d3f
3e3a03a7
bcc48c0f
bd704a2f
3c90115e
3e282f0e
3e04e4ec
3e0d169a
3e287acf
3ea74b01
be221022
3e056407
bd712759
3d68bca5
bc5f6bd6
3db06659
3b8e6087
3d96536c
bd7f455d
3e00e2fe
bd6a5207
beb30e2d
3da98375
be00c422
bc285276
bd1332fc
bd00af84
bd4a01ef
3dee91e9
3d90eba9
3e071e6f
3dee150b
3d987d86
3e822f9c
3e31eb71
3e1b7697
3d4d8e89
bc2232a7
bd935e33
be9f5a23
3e16b611
be5ea379
3df5b99b
3d9cb075
3e7a178e
3e592c00
be54157d
be9b367c
3dfb7860
3e1f852a
3d85d630
3dfbba5a
bd96bcf8
3e0e6d9b
be15a088
3d806ea2
3e0a4b4f
3e584d60
3e57adb1
bdf27f07
3d0940cc
3d954755
3c827ba9
bc6cc78e
bd00f721
3cf5c9c0
3dcfb07c
be65798a
be30bf28
3de956e4
bdaa4117
3e082edf
bc0f4b8a
be380ff3
b8cc7cb9
be13a3b6
bd865f85
bd4a01b4
bd274193
be85351d
bd98c6c4
3d9e6faf
be5ff5e6
3e0c035d
bef4ddc4
be6f4f1c
3d8a2365
bc9511cb
bdecdcbd
be7ba3a2
be2c8839
3d38fc72
bd3e74d5
3e20f3e2
3daa6bab
3e0827d0
bd4fd449
3e4e56b6
3dc116e6
3e71d7fb
3ca2eee5
3d5e0098
3d5fe234
bddc4209
bdddb794
3e9f72a0
3e2be1b0
3e091e5c
bdadf6cf
be1806a8
3d963901
3de8b97b
3e420f49
3dcc2b60
bd27efb2
bb8ab1d2
bd76dc30
be867e2d
be7cb1b6
3c4d9607
bdca7442
3de4233f
3c942c75
3ea74bd0
bda904e1
3debd2c7
3ac9eec9
3e41c569
3e97e236
be2113c2
3daf9efb
bd88571f
3e6cba2b
bd5afe0e
3d639ddc
bde8475d
3df1782a
be026e0f
bdac7695
3e415f70
be15150c
3e98f65d
3d1b5e0c
3de7804d
bde68223
be4ba0cd
bd4d4778
3e2893a8
bda811dd
bd4f3d2f
bb107c1b
3e80415f
3dd6feed
3e494bc2
3e2d3078
bda83e76
bdf90724
3e68a5ce
3e1553a0
3e33c1c8
bd2e0e70
3de2ac52
3ec4be45
3e0da642
bd4560c2
3e30bec8
3e3ff44e
bd691da6
3c6ecd7f
bc9f3de3
bd165f18
bc3450c1
3ecd4f04
3d325cfc
bb9b2205
3e15e6cc
bdc9ab6d
3e3b5a1f
3e81630f
3d83bd47
bcf285de
3e2f84c2
ba6d484d
3d910c18
3d0f0c87
be849401
3dac7f54
3e25726f
bd505d24
3e9cbc24
be09a0d3
3e4b6e10
bcfbe5da
bd8b5809
be6eb76c
be848f79
be3a027a
bce38ac9
bd22b7d0
be1678c6
3e147fb6
3d65bd45
bd2c04d1
bca0a263
bde33f88
3c56a13c
bbc01fb0
3ca86411
3e84a907
3d8b352c
3e5c7f5d
be25ac0d
3c58f9b0
3ea6ec1c
bc95bd56
bd4aa91a
bd0b267a
3d29454c
3e103240
bda774d0
be02f776
3dcafdfd
3ea78c53
3de17b1f
3eac0d44
bc982f2e
3d7181f7
bd87fdfb
3e6359f9
3d8ea6b5
bd481f72
bd1ffb59
bd88abe3
bdcb24e0
3e358f72
3db99fbe
3e9a2658
3e3df15b
3dea2f88
be9c0975
bdc694f4
3e8051b6
3c0d36c3
bdd8823e
3e31f5b9
3da96769
3d6a518c
bdae8442
3d8cb642
3e03d19a
be319416
bc52722e
bde01716
3c26bdea
3e3b4295
bdbb9763
bcdcf3f1
bd017b05
be32c9bd
bdc7711c
3e90f43e
3daf8148
3d0d92f4
bdce5332
3d96c4c4
bc961a47
3d96a048
bda3d505
be1f215f
3da15f51
3cb416e2
bddfee40
bdb9f4f1
3d84107c
bd8783e4
3e297b0f
be24196a
3df93361
3d7f93dc
3e2e29e6
be835c64
3e89cb76
3e3632cc
bde9cfe0
3d30eb90
be1030f6
be1f6ddf
bdf4edc5
bd310c91
bd1e7736
3c5d1f3d
3e90720d
bda0557d
3deaf784
be317b2e
3e08513b
bebbbb07
be712bcc
3e581318
3c183dc7
3d36afcd
3e15d04c
be5c0e58
3dbb438b
bd7c1572
bda7fe1e
3d7646dd
3dee50c8
3d93caa3
3e4f3d00
3cd2c5c6
3e8bc13b
bd98a22f
be81d963
3d107fe1
3db053c4
3de0d2ca
bd4ee559
bea324ce
3df8bd15
be0c98a3
3e12ebbc
3d11cb1b
bd821eaa
bc50df74
3b241f56
3e0da3b4
3e855269
3de87361
3d7112b6
3da9722d
bc2c5715
3d4bb2ac
be543f5c
be8be854
bc73ec93
bed08441
3e66df91
be57b933
bdd1e36b
be73ed5d
bda51c5d
bb136239
3e16731e
bdb6c38a
3ed2aa4b
3dd84b4f
3d78ef76
3e25c968
be7f5ab2
bcc95ca5
bd71f07e
3dde109c
be7bf901
3ea7ac4d
3e041b60
3cae0054
3e36775c
bebde035
3d3a707d
be0c2997
3eca400c
3ec0ff8b
bd6c0adc
3e59cb7f
3d25aab6
be44db39
3e60984d
3c8d3206
3c7b9ba0
be2d9db2
beca5215
bcc0479b
3df10258
3da46cf1
3d02fe58
bdd2c0b9
bc0f60c5
3e960974
bebaa9d8
3da00d69
bee61305
bd8e2526
3e03f2ac
be8d91bd
be73ef82
be2c30b8
be35d326
3d1dc140
be8e1e87
3e2b7a09
bcfd8952
bf110408
be9778a4
be9bed15
3dc4943e
be5b12f8
3e800d22
3d164e08
bb187c29
3df1d95f
bdabc1c2
3e08cb6d
3e005d29
3dcc9661
be8844e6
be0665ec
bcc9b616
bcb7c49e
3d987b26
be942d06
be6ae449
bdef4755
3eb1f0cf
bf056f68
be572508
3d1087f5
3da9ee18
bdf202c2
be096a14
beb27a54
bdf545d4
3e137226
bde31a2c
3d460b10
bde36b8e
be8a4ea6
3d9cb767
3cd60e4a
3b0b687e
3e29f60c
3c1e2496
3d916ca1
3ec79277
3d406ab9
be7c2d5a
3e06648b
bdc00597
be8ef7b6
3cfd3ad2
bd7c3afe
be05cc3d
3e24b655
3da4b591
3df20567
3c965039
3e398f2e
3d270c33
bde3e141
3d809aab
be78f763
be119126
be21becc
bd7a9f50
bdaa98de
bbad5547
bdbda846
3da5aef6
bb4d144d
3cc65d62
bdcfada7
3e44d75f
3db2e623
3db175a7
3d7ebb7d
3da6e9be
be08acdf
3e43b9f5
3dfeec57
bd988f26
3e31d374
bdca97b6
be4d2bcc
3dc124ff
3e0e1546
be65b0a0
3e2ed369
3e88a8bc
3e015b36
be03a9ea
3dd9a668
3b37ff1e
bdec2103
bde0aed5
3e3260a3
bdb45592
bc00c158
bd21bd33
bd5d2640
bd563251
3d85139c
be17cd4a
bcfa659c
bd48ac36
3e61b269
bc8c5a37
3e4096b1
3e16d553
bd5dbbdc
bdd8e187
3e7ae659
3deacfef
3de3fdc9
be2a568e
becccd22
3e3ceb2a
3e7b1ca3
bcfc0eda
3e6c7eb6
bcc1a64e
beea8494
be9c45d4
bd900791
3e12e3fd
be33253c
bc357fb9
bea35440
3e3bd872
3d50ec1e
bd598fa7
3de11440
3dbfd8b6
3cfa8c64
3d03ab7f
3b8dc559
3d8d515c
3d76e761
bdcede37
be361471
be53c2dd
be1fd72d
bdf91081
bdaaf394
beaa4cd2
be9d0e1b
3e14f26c
3e43fb36
3e9e9af5
bdfd1998
3e81ce9a
3b6f417a
bdbb3ccb
bd9eea6d
3ddc2bbe
3f246dce
3e496864
3e276ad5
bd0992b0
3e60e66c
3e9e4d39
3db95ed5
bda55efc
3e16599c
bd8e4367
3e46b9b2
bd3b892d
bd22a8b5
3d861924
3db01611
3da9133d
3da37519
bd216c8d
bb8c7f89
be84b5d8
be19280d
3d196bac
bce7d92c
bd4b452d
be13927f
bd10ef8d
be2f0bcf
3c8a4a2d
3ddc4e2d
be37ae8f
bd0e9879
bc9d5640
bdbc73d2
3e3d8884
bed227d5
bc931a13
bbbe46d1
bcfaa0ed
be463ba2
bdc655db
be27d236
3c2f2653
bd29edb0
be011374
be82a064
3d496a09
bd20ef4e
bdc026a5
be467b83
bc8ea095
bd62033a
bd9c7a00
bea84e8c
be6a6752
be7b5870
3caaaf86
bd7d29b2
3b6e01a5
3e3d6dca
3d1fbbe2
bd20b839
3d98c6d9
3e11670a
3e3d708a
3d00f9ca
3e0fa505
ba96de95
3d83f648
3d39c091
be1d895a
be40e8e8
3b4ae807
3dda9e92
bd93748a
3d11f648
bd3708dc
bda1b781
bd4989d6
bde6cb49
3de09243
bd25087d
be66c005
bdcb56da
be26cc2a
3dbd2a0c
be9c3609
3e6b4142
be24911e
bdf85c24
3da26e5b
be1e596d
3ce7405a
bdaecdd4
3e5833a0
bda36f3e
3d4b81bc
3d8c3a06
bc835f21
bd560a75
3e1bca50
bdafa7f5
bddb10c3
3e4c6aef
3cd1ff8c
3bbe98bc
3e0b3ca1
bd9bb5c5
3d8bb5a1
3d11a583
bdccc4a4
3e06826f
3e1fc2c0
3dea5b15
be2a18ec
bd11078a
bce40bf7
bdd015c7
3d88fd0f
3e0001f3
bd7077aa
3d8d95cb
3daa3be0
3d1113b8
bd4c1c72
3d513dc6
3d34974e
3d6ddaa1
3e5a3966
3e7ce2c7
3e26bc91
be781422
be0c2bf3
3d598b03
bddf4065
3e2f541d
bebc74d7
3e4ff261
3de8a317
3d564120
3e2a09a4
3e398e7d
3e04bf08
3cb42530
3e216d02
3b08c359
3e2624bf
3d934efa
3dd9fbb9
bd843cd2
bd80427c
be2942b6
bab7c477
3dc3b940
3db6a89f
3d766b7e
3d86f22c
3dfa93ea
3e06961b
bea58053
3de2d112
3c92e5c9
3cf2e214
bd8bdbf1
3e90852f
3d4eff4e
3dd7a46d
3cb29a8a
3dc64ce5
bdc962e1
3d9cef26
bead4d3b
3d346294
3e832acf
bc19b67c
bb8262cd
be0e3fc5
bcfc1cf3
3c26b4dc
3d8cd2cc
bb67dc52
3d941259
3e0c897c
3dd71699
bc373d7a
bcafd458
3cfcafdd
3e6e0cf2
3d9fb8fe
bd5185a3
be6ab029
bab0a1d9
3e073376
3d4a80ab
bdc205cb
be92a8ad
3dd05b49
bd0da13c
bba5127d
bbce2c2d
3dbf1048
bd7ef71d
bc6c5579
bd20d0c7
3ec24180
bda2c47d
be907505
3d419272
bea3f76f
bdb2193f
3db14cdf
bcf87d23
3d70dded
bd609c22
3c19aee7
3d8ec649
bd25aa38
3d487b38
bb87ec51
bd7c1eb6
3c197d9d
bc7261f1
3cd69d05
bca7cc16
bd350492
bca2cde9
3da46449
bc30d4e5
bc6f052b
bd78536b
3de7b1e7
3d751671
bd58ec9d
bda0e973
bd97c132
bdcbcb50
bd985d6d
bd9f46e0
3de1d875
bd80811e
3d345df1
bccbff4b
3c4ad7a6
bd285dd4
3d647925
3d70718e
bb9f7453
3ce89ec0
bc98c7c4
bc60b638
bbbe25bc
3d236ae8
3be6555a
3dd16321
3d9e4e89
3da99032
3dbfbc80
3d442b61
bd86cd53
3b834524
bc486de4
3d8f621c
3db90ac3
bd80d943
3cb41857
3db07639
bb9d1bc6
bd863268
3da64256
3d2e7794
bccfca96
bd086da1
bce01219
3d587187
bd30147b
bd75d2c7
3db87f73
bd1e30aa
bd68980c
3d8e73bf
bc25ad78
bc9300a8
bdd79bcc
bcec51e9
bd969761
bd892c60
3cb07fbe
bd5146e9
3d443bda
3d4c71c5
bd81c9f2
3d84cfb1
bc7e7d48
be9d6525
3961bd15
3e052d8e
3c248f9b
3d8bff61
3d9129e5
3d198f09
bd83c88d
3d6aef29
3d4fc92b
bd00b224
bed950e6
bcd850a0
3c84c1ac
bd60b2d9
3d81d95d
b9aa0f21
bdc73d14
3d5e1a92
3da38ad4
be7b710f
3d7dd383
3e26de9e
bdac9b11
bc5573e0
3e198c50
3d04d34f
3cf7afcc
3da5bf92
bd377dee
be5e48b0
3aaf7a3f
baf90496
be0c941e
3cc1fd85
3cd91999
3da6999a
3c4ab244
bd18fa9b
3e00f600
bd9ed42a
be3d7b6c
bcd2f92a
be386752
bd890df0
be3ec8fb
3e4ccc67
be1f4814
3dc219b1
3d85259e
be69ac13
be4bd6aa
3e17f316
3e45e32f
bd5e4f46
3dbee74b
3e2740cc
bb1bbc52
beae91e9
bc8b38fd
bd8a7103
3c5d3268
3d87a261
bd4984c1
be437248
bc72d08e
bde38ae6
bd0dad43
bb8f5eca
bd0b3293
bd8deb1a
3e1ea388
3e2d9d66
3d98d996
bd9c0ef8
bd21e209
bdbbacea
3e840661
3de6fdd1
3e0b4671
3bf9bcb7
be55f7fd
3e39b92f
be0b1e27
be40cf0d
bd213217
bd5ec5cf
3d852243
3d924845
3d008b73
3cca6487
be2072bc
bd6999cb
be4c0dec
3dd6d0e5
bebc426c
bc6f1e4e
3e4b0a1f
bd71f5b1
3db9e8e8
3d895ab9
3d180b10
bd852553
bd479192
3e28b1a4
3a4df77b
be04a02a
bd7dda84
3c6c3b9f
3e3f5e7b
be2dd7dd
3d6b5ecd
3dc51fec
3e102e7e
bdec54f0
3d039864
3d9e4a34
3dbd051d
be22e7a9
bcaf35b5
3e6ad52f
be542216
be0809c2
3c7a7425
bda1eda8
3c569254
bdbba080
3e85d982
becd2bbe
3d5ea30d
be6bd7e0
3e86aba6
3e0b405e
bdaf037a
3db2d559
3e082938
bd378aa1
3d5db720
bd6cbff0
bdede1d6
3e1eaf19
bdbb9f82
3eb643db
3e275772
bda99b80
3dd56fe1
3dd23058
3cc52109
3db0743d
bce16c05
bc1fd168
bd26d1cc
bdba799b
bcb3d37f
be50e207
3e548f82
3db0b508
3d9e1140
3df89153
bdb1f97a
bbd0046a
3e1f240c
3b864ff5
3e8aa292
bc585c6a
bdbb6196
3d6c14c6
be3b39dd
3d6731ff
bbc12fb9
3d5c2355
bd81dcb9
bd8f3b29
3dab1b4e
3d53e666
bda976d1
3d3683b4
3cb96d6d
bc80a7bc
3d42bacf
3d93325b
bda5d12c
bceb0cc5
bdbaa8ff
bd63152b
bd091f97
3c9b14c0
bdb284ee
3c88be07
3d382057
bcaee524
3ce7c9ee
3d822b70
3c750ed0
3d6c97f8
bb70eeab
3d4f1334
bc43760f
bdafb33b
bd125903
3d5882d0
3c908624
3c911aec
3d6c077e
bd0ca973
3da87aeb
bd71e7cc
bdb6331b
3d9e6570
bc155a92
3d9c736b
bcb38ead
bd6b9d49
bd7360de
3bee5600
3d6d8f3f
3db605ee
bcb594f4
bda78726
bc1158f6
3db148ee
bdab7902
bd4f0c21
bd8df746
3d94d7ad
bd444dba
bc9bc9cb
bd5fda3a
3da1a825
3d08dc4a
bdb5a74c
3bbea6b8
3cb51740
bd207497
3c8be600
bd8c48a2
bdccb3cd
bda14656
bd9a9d50
3c25904b
3d308fde
bd9b9841
bcaf0742
3b4c430c
3d79d558
3d6ab61c
bd765288
3d35b33b
3c9c14d4
bd44ce5e
3b6c27fa
3d59063d
bc849129
3d45889b
3df3fb7f
bd652d76
be8c8584
bd3d64b7
3db030ec
be25acf3
3c43f02b
3dce1d10
be20da0e
3d3ae7b9
be216410
bde404bc
be0ee838
bdde9fe8
bc4abd11
bdd0aaa8
3e198aef
3c947df3
be18100f
3d12b1d8
be353291
bc0e6548
bdeb903b
3e48d37e
bd94160c
bd301386
3dff9774
bd288c47
bd548d4f
3c63c28e
be45b226
bd50f0d2
3df0ba78
be96a0df
bd276dac
3d58b548
3e695e8d
bdf2af98
bd0ca9f3
be0f003f
bde5c2c7
be7831f4
bb798b46
be1f5c48
3e2dddd7
3db3f433
be9197f2
3d5667b9
3e4638dd
bcc34202
3e4df914
bca43328
bd9aa256
3d8d3a27
3de68662
3d346d5c
3c8c0686
3e1b8290
3c0b60fa
be023793
3be812d1
3d00dd81
399825cb
bc6453ea
be10b410
bc6bd240
3d6d2ee6
bcb760e1
3ddee8e1
3d898b68
3e0b5603
3d06a406
bcf2eb5b
bd8785f3
bde11c59
3cab5a70
be028fd9
3d0086c1
bca49a79
be2f77e0
bc669c51
3cdf079d
3e0fd363
bc273f41
3dd38f07
be1d94a9
beb298bf
3d964978
3afa0878
bd937b3d
be33e1d7
bdc7cc1e
3dc43a8e
3dd2f1c2
bcd0077b
3dcc73a8
bef6e385
3cd7c4ad
bea8ed1f
3eca1c3d
3e4b7296
3ea1a036
bde30d02
bc75724a
bdb47f23
3ea83bc4
bdd9ef93
3d89d6be
bc14a2e3
becbf9d4
3cc6e6d7
beb22b2f
3e1c0fe6
3e3e1802
bdb20a7e
be6763db
bf3fda4f
3e0c20e6
be43d269
3d1e3267
3e36537e
3e88244d
bd28c567
be25893e
3d4cb545
3e0469b6
3e5fe1e0
3e0fc355
bddccaba
3dabcff9
3e8ab303
3e7d5c7f
3e49fc8f
be825d76
be6b680c
bd2da6b3
bdc13aa4
3d0aa12c
3d92e762
be965390
be4e2773
3d955056
3ddb1fba
be53dd52
3ea9f77f
bea0ed74
be0dfc3a
bd8775dd
3d81753b
3e46fd86
bd4c742a
3d3395df
bdc8a74f
3e0fab2a
be80973a
be2c2ece
3bef29c4
3d6b24d1
3d964b80
be8be6de
bedcaf0e
3e8c628e
bde024ce
3cf43cee
be039672
bea84ef8
bc7beeb8
3d18c3c4
bcc43ba1
bdc6db2c
bd13159d
bdb68625
3d76cb27
3d6151bb
3d49f9b2
bd6da839
bcc3c159
3d1865d1
3dd7f868
bd708a6c
3d123d11
bd00ac9f
3d667c0a
bcc26cf9
3d007c84
3dad0f41
bd1f04e2
bde4020e
3d08769e
bd1ce788
bd8e252a
bb633bd5
b92a33d9
bcb66985
3dc1ab82
3d3430ba
bc2ca503
3d7a6256
3c8428a0
3cdc2df8
bdb1d157
bd89d69d
bd79d6b0
bd07da7b
bd8639fb
3d935e19
bbd99420
bdace763
bd1c02bc
3dba7854
bd488a24
bd86a146
bcf45279
3dac891d
3d95b3a2
bcbc6c19
bc1ad1b6
bd74a2f3
bd91d316
3de194d7
3d331b1a
3ddb18d9
bd471122
bd4fd0fc
3db9626e
bdef8ae1
bd4a69bc
3d611175
3ccf3401
3d61864e
3dce6ffc
bd6295c1
3d8bdbd4
3ddd9a51
bd24b490
b9a78265
bcb584f1
3d3596a4
bc197cf4
bbeb7a66
bcee560f
3c36ed35
bc2f0b10
3d976173
bd2e0984
3d107743
3b8d3e2f
bd837028
bca98310
bd976565
3cd84bb5
bd88fa76
bcf42b84
3d4cb685
bd8e581d
bd169f8f
bafbfae1
3c88fb70
bd9def5a
bd7c4cb9
3d84c0d5
3d7cc5d5
3d4c6a2d
bcda4f52
3cbf6fba
bdb94f00
3d2b64db
bad341b1
3d2eb311
3c9e7717
3d2c5e98
bcd0374f
bbf486f4
3db48681
3dab1cfe
bd8af75b
3c3fa3f2
3dadb814
3c679a96
bbd8ba74
bd5be458
bcb431ba
3d978efa
bd286717
bca4a112
bbba3b9e
bcd3a9fc
bcbdb3f7
3d6a03a6
3d98033c
bd7ffa50
bd9cc675
bd950e26
bdb72825
3cadfd7c
bd8d4cb9
3bd4d70d
3d9b2ed4
3d27ce5d
3aa9f405
3bb2ba44
bbeafd77
bb7ce1c0
3d08f70f
bd3620c4
bd441e2e
bd6c2c9c
3babb211
bd0bd286
3d47fc12
3da89763
bcca8dce
bd550a7e
bd808ff8
bcf28210
bd8d49b2
3bfbc5b0
3da28f74
bd9ef002
3cfde360
bd97b264
3cd75c93
bd18ddb2
bcb5e14e
bdbdfa69
bc9b6ca9
3c99f1f8
3d64597b
3d2d45c2
3d64ebee
3d40edf5
3d133df2
bda098dd
bbc8c8b0
3d03ce5c
3aef6bf8
bd4efa93
bec7e658
3dc0e527
bd85ca6c
3dbbc886
bc975feb
3e784bb5
3e8faf39
3dc3a01a
3de45e0e
be93b9a5
bcdd8be7
3e934d57
3ceca8ef
3e1a4552
3dc9251e
bc49f712
bd1789f3
3d8329c8
be7da22c
3e33aa28
3e916265
bd14cc44
3e06afe8
be552e35
3e95d3e4
bdeca3a8
be067305
3dabb86c
be511bb5
3e5ae019
bc5af57e
3e51703a
be594c3f
3d95f2a8
3e876047
3e7314b2
be06006b
bd8f368c
bd4ba42b
3c95884b
3e8c3388
be2d3989
beaa18ff
bd90c186
befda7af
bd1cc574
3e6d637c
bd7fbd97
bdede0ba
3dfd03ab
be52e6b5
be27fa4f
3edc5d87
3c9e019a
3ea77690
3ef6084c
3da2a062
3d483034
be127135
bdbc5e0f
bd8456f6
3e67f6c8
3dd473fc
bceece28
3d5898e5
be210a78
3ce24aee
3e838f40
3e12f312
3db17cef
bd82f096
be61f944
3e62456b
bd9e446b
bee45fa4
3d276462
3cf8193c
3ddb0fee
be0ec7e8
be7978de
3e284ce7
bd7c6e8e
3cd7e2a7
3c965553
bd6c1730
3d44d43f
bdac7152
bc6994bc
3d724006
bc292317
bd25eca5
bd581d54
bc45035a
3cc672e2
3d9cd295
3d5caf12
bd25a5d4
bc5b1b53
3c151c31
3c64957f
3d7c8d79
3d7dca2f
bc4049a1
3d82f0cd
bd84f174
bd90a1bc
bdb9410c
bd8d424a
3d6a9fa8
3d4d3d88
bd1af582
3dbb6263
3d9dd63f
bd4587bf
bc96b044
bd2ce412
3c04b265
bd8b29a9
3be12824
3c876561
3db6a2d2
bb72c880
bcdadd98
bd650c41
3d97cde4
bd3f3175
3d7c6117
3cc6de1f
bd28f49f
3dc3a570
3bf2061e
bd6fa013
bd88c137
3d80aa36
bd9f19e7
bb8f762c
3d07e212
bcb690fb
3a9ab9a0
3d8b3b03
bd26c58a
bd5de646
3d10cc53
3c2f2559
3d4ed1dd
3c96d7b8
3cb4ff69
bdb7a85b
3d326514
bd8ff1cd
bdabd6b0
bd6297e9
bcce12da
bcc9f8b6
3cdd32d6
bd2e750d
bd7c74af
3a6a6280
bd51cf05
bd24229e
3cb24ed2
bd5bbe2b
bb0cf29f
bd0a4756
bd933b5c
bdd7c0ef
3e51784a
bde8e850
3e11c5f9
bc772989
3d11e252
be075aa3
bdcc1b0e
be3fa627
3c9814ef
bd96affa
3e067f60
bdf02121
beccff27
bde31318
3e287063
be7f08c2
be2dbab6
3dbd001b
bcf24fd1
bc8e2e2a
bcd22290
3dd21f57
bdccc971
bda7d03c
3e29667a
3dcf1e31
bc12a830
3cf725d1
bde3c716
3e228150
bd979715
3d093b12
3bb89c0e
3c0d737a
3e492667
bd5bdeff
bde3f8ad
3e88fede
3e684148
3ca1fc96
bedb3ae6
bd965a3d
be585268
3e10bf26
be8d3b68
3e2ecc28
b9197afb
bea93ac0
3e065c84
bdcf68bc
3eb5897d
3d557f8b
bd3865ad
3dc503b3
be043f9c
3d5d42f7
be428f8c
3d98291e
bd954852
3dafbf42
bea614ee
3ddb262d
bd92d57f
3d933d77
3df72bb1
bcaf2b08
3e3b69e9
bd9f1be3
bd7b1002
bd2aa909
3e3274a4
bc19e5b0
be85dcd9
3e3e74f8
bd7b948b
bcfd5e7e
3c70c678
3d6c82e5
bdaa5840
bcae584e
3e262032
be67b6cc
3d0fb5ee
bd462edf
bc9da5bb
3dabb846
3da612db
bdc0eb14
bd2c62db
bca47a8a
3db28c66
bd553673
3daa33c6
bc0b3e09
3d0eda84
3dc249d5
3bd77a18
bcf93d89
bcb610f0
3cb93f97
bb86ed49
3d9d108e
3d976e36
bd9b967e
3d893242
baa77e17
bc8ded0c
3c1c10a0
bd84ca28
bd9f91ee
bd414bf6
3c39f3ad
bcb08b33
bd3ad39e
bca18f41
3b0ae1ac
bd7b0251
3d85dbeb
bc5b435c
bc8776b1
3d952c88
3cb21617
3d338968
3ccb7e2c
bd56efa6
bc7f0c18
3dcc15c9
3d030000
3d9b1d88
bdc9dbe7
bcfce270
3d57bca0
bd453d42
bc1e1989
3d79b277
bd1ee561
bd08d4a3
bc52b164
bd7cf0c2
3d8f6db2
3dbfbc8b
3d83f600
3d7c579d
bd3e125a
3d1b3930
3aefdd22
3d662dfb
3d361b7a
bd77f408
3d9ef828
bc30bd44
bd3305ec
3d6bd7bf
3db69d94
3bb280d9
3d859100
3c0338cb
3d0e5b72
bc8f10e2
bc6688d8
3d3d62dc
3d75dfcf
3d96526c
bd745c3d
bc03f5ad
3d354f44
3c49a638
3e05fcb3
3d2dbe16
bd60e5f1
bd896a8d
bea2007b
bc9ea002
3d96e810
be1c53ea
3d300de4
3d2a683f
bdc4b4dc
be3e99e1
bea4fd84
3e16cf01
3da47893
3d74bcb9
bd4fc8ea
3d2b0e46
bd4fefdd
bcc6874d
be788db9
bcf45201
bdf0ed30
bd4c2fbe
3d85200b
be022bc6
be9f1753
3d8b854a
be93e559
be21fcda
bdf54beb
be6f739a
3d93cfb1
3d81a600
bee145ae
bb4276d7
3cce49a6
3dd16eb9
3d6d345b
bee48829
bd2b021c
3daa6ad0
bd1f95b1
bdd63d29
3eb09498
bda1fa2f
3da681ea
be1894d5
be556710
bdba4f33
3d83a817
3de8351c
3c26dfa2
3e1f97b8
3d8cc435
be1338c2
bd81d458
3ddf269c
bc21ed90
bcc2c4c4
3da372b0
bcc71f8d
bea70835
bcc375ef
be1581ae
3cbd9ed3
bda41e43
3ccfcc4c
be2319fb
bdab4c37
bbdfe609
bdf5efe7
bd75edc8
bdcde225
3deaddec
bdae0296
bde22805
bd371b11
bdefa5a1
bdff9b3b
bc89145b
3b96d466
bedf672e
3996da5d
be0531f6
be3abed0
3dcb7c11
3d1e395c
3e59d5fe
3e0cd566
3dba7b8f
bea751ab
3e51ae45
3df6e328
bc1eab9c
3e71b93f
3e3dd769
bd9b1278
bdbeb9e0
3e1e5eca
3d770078
be9743db
3df533c6
3e29b798
3d3a2fb5
3dcda871
bd2c6629
3d551f94
bcd91f8f
be1bf34b
bc9c3b47
bdcde583
3e24b23a
3df17095
be8fa586
3ca4561c
3e362d36
bd6f42b1
3e4639ee
3d78f919
bd550db4
3e450a89
3e1950d3
3d24420f
3c3844fe
be73cd3b
bd9ebc27
bd1a07fd
be5b5a76
be1ae9af
be686170
3da98412
bd4393a4
3df5d8da
3e67799d
bd50e9af
3e12f967
3daa3a2a
3dbcde63
3e043b64
bda43a5f
baf900ad
3bf6f9b8
bddc25bb
3de902ab
3e80d7d5
3e851e3b
3d759dcd
3e806254
bdb2cf3b
be04a319
3e2fe701
3db6994e
bd41336d
bc7d21db
3dbce352
ba64e7de
3d911245
3dc4f384
3df0963e
3d40edf6
bdd1f037
3d2982d9
bb662348
3cd27d51
bd2b6705
3cad1a49
3de68094
bdb88db3
3dc91a88
3d9284bf
bcbd9b40
3e15fb8b
3dac13f9
bdf7e4a3
bd06948a
3d83546a
3dd358b3
3e293b7d
be615565
3d4e1117
3d0febd9
bd1f3a9c
bd811671
bdc732ca
beb466a1
bb869e48
bdaecf3e
bd357143
bd17a75a
3d31c99d
3e39f693
bafed951
be6a7983
be2c4d55
be1606cf
be291d71
3e03d535
be411202
3d32820f
be089d77
bd462ac4
3da41c17
3c56c065
bddd4f44
3e27b825
bd8f5227
3cf5dbac
bd73efd8
be165181
3d30e3e0
3dd4b9b8
3dc2d434
bda890e1
3da0244d
bdd933cf
bcfe502e
bd403384
bde31f53
be8672d0
bf12597d
3d721259
be1a068a
3d31e971
3c8b6804
3d3b460d
3db95a2b
3e57bbac
bd6160cc
bdf6071a
3e10fe68
3db6c0b2
3d48f128
bd43f386
bd73f620
3dd2443f
be49fefb
bd5279c8
bd6c057e
bc46552d
3e21a44f
be5e3122
bd3bb2b5
3cbbaeec
bdca2e2b
3d5cc309
bd2ae9c8
3def4d57
3e267f6b
bdc35a35
bdb1744d
bd8976e9
baccfef0
bda3e45e
3c55fcd7
bd42d6db
bdbb8a03
3d8b5511
3d419474
3dc54f62
3c67e4d6
bd969b4e
3d9118fc
bdae1fe0
bd4b2b23
3da99bb2
3d3496d2
bba488c8
bd813f3b
3d0aa664
3a8e583c
bd63a218
bc988b39
3d8d8b5b
3c204490
bd1fc682
3cd27d74
3ce3d887
3c95528b
bda40ea2
3ccd6c48
3c326a8b
3d856762
bd692bb9
3d1f9e37
bd4ee32e
3d368260
bd2e200d
3cb21b6f
3caf0d31
bd992da8
3d4bd315
bd98d8ff
bc97601a
3d3671cc
bc502b61
3d2d5ba6
3d805074
bd453d6e
3d927fea
bd9d8ba7
3d04f747
3d3a4974
bd49ee20
3d92e98f
b9d8e013
3d99dec3
bd857415
bdacd8df
bd278896
3a9be6c0
bd7d0468
bd6be004
bd79b886
bd4a6dd5
3ca8012b
3c819bda
bdcf66d5
3d6e7a4c
bcb9e46f
bd9ab8e6
bdc18617
3c9b8bda
3d931dbf
bc981e42
3daee489
bd576594
bdc3b665
bdba8f6c
bd82341e
3d5f91e7
bd326084
bc03e652
3da7d8f0
3d73e47d
3d929900
bd85f915
bd9ee07e
bd4e3ca6
3d7352bc
bc20fc67
bcce110c
3d2c3b94
bd4de188
bd66d505
bb7dabf1
bc32d8c5
3b2213f4
3c8b7749
bd0547ec
3c580bfb
bd31aac1
bd982bfc
3d0559be
3d6a8e4f
3d221dc6
3c227489
bd2b2718
3d77b214
bbca5fcd
3d6e2a3c
3d9632f4
3d9504c5
bce1795c
3d10139b
bc55a384
bd0e7544
3d8ee946
3d48b5da
3b90baaf
bd9d0f20
3cd100d6
b93522f1
3c060e04
3d4a7198
3da01a78
bc073070
bd965984
3d0770b0
bc918762
bda5ebc2
bb955e2c
bc58650a
bd3cf6bf
bd933826
bd68a433
3daddf60
3d5c8fae
3cb6b1d4
bd0fe3f9
bc4f15c8
3d26f2d3
3d05f069
bd107a01
bcfdf63c
bb003180
3dc6c370
3d937654
bc77d21c
3d524f0f
3c40ca86
bd49ddeb
bd861476
3d6e4975
bd341e77
bca604c1
3dac9ffa
bd3ed42d
3d460236
3d06e208
bd8107c4
bdaf1d3a
3cd9a4f0
3d887d3e
3da62ea3
3c7469aa
bd8ec6fa
3db0671a
bcad986f
3d9aad1a
3d0c19d0
3d9cdd3b
bcbaccc9
3d5ef77b
bd3ab477
3ca1d064
3db1faae
bd4a9dbc
bd1ccffd
3d124d8a
bdabdb92
bd806ce3
bd5d261b
3db612c1
3d988626
3d25311e
3d1556ea
bc9ca3dc
bd6e14c8
bd1218d2
bd9bba00
bb87afe1
3cf28678
bc42817a
3c0c7908
3c4573df
3d91403e
3d8f5587
3d0954f7
3d675fed
bbe33952
3d8988a3
3cd47c9e
3ada39a7
3d5d2202
3dd4a7f0
bd45382b
bdabee04
39cd7069
bd6e3951
bd2f03e3
bd9293ec
3d868a5a
3c9c91e0
3c1fa068
bd929d4c
bccbe064
bd8f095f
3d5a3c3f
3d76c775
3ce4a666
3c56c305
3d2a53e8
3dab2fa0
bcea0c14
bc424200
3d6825e0
3d945048
bc86142d
bd1310c4
3d4440fe
3d8befc5
3ccc32b1
3c986dc8
bd82a446
bcb06f41
bb03c860
3d0671a0
3cfcd035
3dafe74a
3d9d5194
3dc3b0f8
3ca6f7c8
bd5d0bdd
bdb8d41d
3cb149a5
3d6a938c
3d022156
3d3f6620
bc0b7600
3d4ef2a1
3cc6e42f
3cf56ef9
3d8a3f87
bd0807b0
bc5f7318
3b4102c9
bdad311a
3d5a2a15
3ccb1b83
3d94c149
bd734f92
bd1860df
bdbe7d76
3c984d38
bda586b0
3d0acf03
bd0bb5b4
3c19c366
3d6173a0
bd91b147
bbd7f920
bc6b9701
bd8c9aaf
bbc30510
bd418e34
bc6e01f8
3cfae4e5
bdb475d1
3daeea4a
3bd80078
bc5c5270
bcb1836c
bcc0f755
bd8ef583
3bb17667
bccc9095
bd83e69c
3d9da6fc
bd6e5afb
3da5692f
3d5709b6
3d281f35
bdb0add5
3c693718
3d8b5d23
bd096dfd
bd7ce945
bbca7c57
bd4fd768
bbd49269
3da8a959
bc74d9d0
bd91d554
bbd6b796
bd840c41
3cc1d360
bd671e64
3dbb97cb
bd86ce25
bd2fb27b
3d8ba5b7
bd2db330
bc9ed055
3d57217a
3de43087
3d129e4a
bce3c910
3be3dbcd
bd30078f
bdb462d3
bd60d463
bd084f28
3d0ad82a
3d783396
3c90e61a
bcdc3474
3d89f18b
bcd1ee67
3d057ae0
3d518cec
3dcb56ae
bda42ce8
bd7fbe9b
ba643c4a
bd066656
3d2696cb
bc92796c
be01a7e3
bda83cb4
bdc70ca0
3ef0b574
3dd192e3
3d9a1ca4
3dd58241
3dafd3ae
bd667016
bc4b4857
3e18037c
bdeb3efc
bd90d8e0
3d3881ce
be19b52a
3c85068f
bd2d0924
3d299be2
bdb7b8ae
be6cdbfa
be537956
be1010ba
3e8a12cb
3d830ba6
bd1796bb
bebd3d73
3b0eda44
be2efa7b
be43a5f2
3d7b2a76
be49512d
3e22aa0b
be1d68c8
3b52a8ff
3ecae172
be030918
bdd5461e
bda59976
3db0388b
3e119ff9
bcc157e0
3d3bc190
bd8948e6
3dc24ca9
be02c3e9
be77845e
be1ce850
bef4b6c3
bd141871
bebfe748
3b4f3253
3d31f711
bd248d2d
3e2aa894
be5d5eb0
3e0bb145
3d9a1ed9
3d413345
bdba8fb1
3e12bbcc
3cbd603b
bef4ee9c
be005772
3e64b04d
3cc355a0
bd96b8f6
bcfbb304
3e995e0d
bb438b4d
bdf716a1
bec932c1
be04a947
b9f7f979
3c8947ca
be07dad1
3da0bcfb
bd4d6765
bd096f2d
be47728e
3c811185
3e6321db
3d0dafef
3e9e0e1b
be5ab192
3c95f773
3da9f43a
be78f056
be304cae
be41aaed
be35e797
be500ec3
3d35e4bb
be6f1ada
be17f063
3e1c9ecd
3c15cb0a
3db1c081
be21ef46
3e0d87b8
3e27d661
3d81dacf
3dc6510d
bd6b0400
bde23cb3
be64a134
bd7e6103
be45a780
3d7a9e5b
3d99ed8a
bc81a024
be8c6fdf
3e301b5f
be8d34a5
be777733
be96c902
bee5baa0
3daa8325
3e135599
3d40d315
be40c58b
bd2751fc
bc9e6bb7
3dd33f3f
be448193
bc2dd9eb
3e95f44a
bdad1606
3e65aed3
be48fff7
bc6afd79
3e1f072b
3d10b008
3e0e04a9
be30f909
3d271bce
3e49e649
bd88b5e8
be93073d
3d9dd9e3
bde040f9
3e15961e
3e1428da
3ec2d97f
3e1f9e85
bd791dfd
be6e0f04
bd6cd1a5
be288705
3c49279b
bdcccbe2
3d6a4c8f
3e0f3231
bdc2f21f
bd4df898
3dcb61d8
bdb28faa
3e3b43dc
be3b38db
bda6de0c
bd4c72a2
bd9f7682
3e0a50d3
bda763f1
be185331
bd58a7b6
3d22d46a
bd9996ed
3d3e0be8
3d99edf8
be1a3054
be156112
bdacfd4c
3e11707c
bb93aacb
3dfbf8cf
3bf30c11
be91454a
be3027ce
bd7914fc
3e56ceec
3d9b1eb0
be6aca1f
be41c4fc
bde9c2d5
3d36f513
3d9ca774
bd014d5a
3e4abaf1
3d98a7d2
bd891539
3dc01832
bcc0e6d5
3d7bfc57
3c18640c
bb5df4f0
3d5b93ff
be478d41
3da06c8e
3cf84480
3daa795d
3e6cac79
3dc5593c
3dacbefd
3e581e7a
3d5ec802
be13911b
bdb3b53b
bd4f252f
bd0ed710
3e459e2c
bde0c534
3e16626b
3dc2b903
3d0f1a15
bd20f433
3de23b1f
3e26d41d
be8afe0f
3e015b4f
3e02a3f6
3e1d49e7
3d388d04
bcad0268
bcb5c5a3
3d5e2096
be0e4068
bd9da56f
3ddb2d40
bde43b5e
3e19ae79
bcddaae4
3dd3f1d9
be029168
bb12310e
bd6396aa
bd010c24
3df45801
3bb1c434
3e9cdee8
be2fbe45
3b488b28
3c95cbf5
be09f29b
3d5f2195
3d40be28
3d5e3730
bd8e1769
bddb6b78
be47ea49
3e02cf83
3d9a9ca9
be73e339
bd96cf51
bc4cc3b3
3d0bef68
bdeee1d6
3ebcc21d
be138097
be962206
bd958a82
3e133a43
be156eda
3e8e0296
bbcc3528
3dfae080
3de3d78f
3ccde4a4
bd20b8bd
bd434c23
3e4afd20
bceec7c8
389cf697
3e2075b2
bd22377c
bec11e60
bda74802
3d862815
3dcb980e
bdd7b4e5
3dbd5585
3d3936bc
bdb249d4
be102f24
beabde3e
3e43828e
3d15a4a3
3de419f8
bbc10969
bda23b31
bcc1f606
be0c6825
be01f91b
bcb3eaa9
3c9f3daf
bd043770
bdde53f3
3d233943
3d9d8877
bdf1a5e1
3d468161
3deaaab1
3cd01f45
be35b434
3e34989c
3e33c02f
bdd2599c
3d46ec6a
3ca7b369
be675005
3e66a7e6
3d880107
bd72f740
3d83dea0
bd5a08bb
bd991989
3e01f02b
be00c8da
3e37625d
bd97d325
bdd5f0a3
ba4e4600
bd9224ed
3e5c1a30
3e4219a6
bd2eae58
bacf8713
bb873454
3e561991
bd21f58f
3d60b3af
3da2a27a
be79843f
bd0044f3
be48c598
3d89f826
bdd57933
3df754ed
3d240b69
bbe72302
3db1ca6f
be77efaa
3e033146
bd6ac33b
be2799e7
be9ca94e
3b572d2b
be64425d
3e269258
3d85ab09
3db0afe0
3c758a08
bddc2b1e
3d25a2dc
3e26e8fa
3e9afd9d
3db7f554
3d03ec07
3e3f869b
be651142
3d69b782
bddf3d60
be17d8d3
3e2f5954
bd7d26ae
3d3b95cf
be497e8a
bdcb009b
bd35072c
3e9d5bba
be0f660e
bdcb4e36
3e725300
3da30d4c
3e3128a7
bd83df93
be0e0af0
bd84e8d6
3ea414ed
3d1d0172
3e1702d8
3e77378c
bddbe77d
3e6ae89e
3e0a6f2e
3e8394d3
bce9a129
3db2975e
3d50705e
be76f9d1
bec20005
3c9d88ef
bc5ec382
bc58b42d
3e0e0984
bd8daa97
3ddd5974
3ce3f54d
3ea95e26
3daf6f1a
3d5149b3
be93238d
3e1c8ba6
bbbb9e20
bdda22f4
3e7eb197
3c9e992a
bd759580
bd40762b
bd908c94
3e4f4b7c
3e1e337a
baa56f57
bddadc39
3dcaf2a2
bd7bc827
bd4880ab
beb4f2ca
bd32e347
3ea9133d
b997b2aa
bd35e157
3d7435ec
bd418cbb
3da2c3b6
3cc06de4
3cc99f9f
bcaccf1b
3d83ee82
bdbf801d
bbf67d2c
b95c421f
3ca4ea45
bdbacaaa
bd7052c2
bcfc8373
bdb29ad7
3d8b43b4
be30e815
3ce44fc2
bcb3e309
3cfdcd7a
3dbf2643
bbd90188
bdadcf59
3d38c380
3d203905
bd035a6b
bd8d03d0
bd876389
bca27f56
3d9b7800
3d1c1d30
bd3eac01
3af2afa7
bd19672c
3dbce86e
3d12ed24
3d11cfce
3d76a868
3de0c1a6
bda1b9f3
3d02e97d
ba504700
3d5b346e
3dc0e0fc
3d82570e
bd8de941
bd6b10f6
3db5582f
3d45aff5
bd6faee4
bce3b2a7
3d3d179c
3d97e1c4
3d34dcbf
3de28a29
bd052354
bda5bb36
bdbfd0ed
3bb9b112
bcacdb43
3d83f5c0
bd83650b
3d7a29b7
3d5f97ea
bda9fd6d
3b9f2bc0
bd8f36fa
3d438713
3d6dc784
bd66bab1
bdf6889d
bbd407b7
bd84fe78
3cb765da
bcc0f663
bda9c61a
3dbc5652
bdb9ec83
bd870d6f
3d2607c3
3cf5a881
3c02a7e1
3d1a3c44
bcb65ab5
be61c1b5
3dda75aa
be82c3f0
bd2d809b
be31493c
3dbb7e82
3e149368
bc2d5b76
3e02b288
3e08086c
bc43e268
3e97811d
3e933cc0
3d80f5e4
bd432255
3e23e8d8
be39b25e
3e0d555b
bdde5b17
3dd35e40
3e4336be
be951c62
be016c3a
bdb1bda5
be3ede35
3d28b11c
3c5dcf2e
3e663a9b
be218f16
bbc0c84d
bd998217
3d1faaab
bd5b0509
be66a675
be03aef2
3ad3a53c
bd25d5b0
3d037120
bde739d0
3c8d2bf5
3eec0acf
3ca1da1b
be06b402
be8f2913
bd89d37e
be5fde1a
3deff4e7
be8c98c4
bcba1344
bcce9a31
be4289ba
3e44cf7b
bd971bba
3e103c75
be4f038a
be79fa16
3e27c946
3e076da4
bd3e3214
3d3178d2
3e7c149c
3d7a406d
bd892add
be3b0495
3dbe6106
be01da66
be957059
3e29136e
bdb87946
3e3bb407
3b8a6074
3e0577f4
3e77df9c
3d20517f
be4cf97d
bccb2a3b
bd3baba4
3e2d4cda
bd12d4ea
be3cf9b3
bdb0e930
3e89b459
3dafec7e
bdb8df17
bdbdb006
3bbbd998
bd2abec4
3cd19ea2
bd15b734
bd906063
3ce54f7c
bbe2bf40
3d80dcaf
bd6a52f0
3cfa46d4
bb51b969
3d8fa2d9
3d9a0009
bd9b7ba2
3d0c99d4
bd3587d1
bc2ba4e4
bd91f127
bb97c05f
bda26d4c
3cde98f0
bb3e37d3
3d3f36c8
3b3368de
b9972590
bc27b762
bd8efbe3
bd8db8b0
bd8be586
bd470201
bd4dbd8a
bd52f79c
bda87b90
bd11455a
bd1ec854
3c72a795
bdadc0ed
3b021300
3db30420
3d0894da
bd069c34
bcb0da9e
3d21e38c
bd82a8f8
3d55a132
bd9041b5
bcbe2e6c
bd632829
3d931a24
bd3e5eed
3d7ca160
3d80c12c
3c94515f
bcbe14e8
3b3b5226
3c6e7890
bca8230c
bc8edecf
bc0a3a66
3c68a4a0
bd7dfc0d
3cce7b15
bd92bca6
bcf3a2cc
3d6586e8
3d0a69e1
bcde643f
bd2ae8c2
3da30a04
3dc04701
3db878cf
bd11f6e6
bc41d7ee
bccfabb2
3d8fcefa
3d967f78
3d3cc448
3c88f53e
3cd5c2e8
bd8235fe
bd29d6d3
3bb50a30
bd95c463
babdd0a9
3dae2f68
bd2ac3d5
bcc4ed5c
3cc1099f
3db25a79
3d106f05
bd976db9
3d77e5c0
bd86a8bf
bda1ca86
3d23207c
bd25baed
bd313822
3d79e890
3da5f342
3d95d1b7
bd9b3da9
bd6b89c7
bd97decc
3d2b2619
bc92aaf9
3cc2dfe1
3d91ed8a
3cd76d31
bd9bd441
3d88b1ab
bd88ef3e
3d5c1928
3d340736
3ce37bbf
3dc51a2a
3d417f45
3b33549e
3d566359
bbf869ed
3da6a158
3d8e958c
bc8137b3
bd0a52f0
3bc80071
3d8e32c7
bb818250
3c584005
bd251779
bdaa4675
bd4ca804
3dc51220
bd7287de
bd22750d
3d9abf96
3db88590
3c641728
3accd067
bc969493
bd67903c
bd634582
3ccdd7ee
bdaaede4
3d37e56c
3d38c828
bd925017
bd68b49b
bd23e663
3dab6a37
3ceebc50
bd1172e1
3c9dc9ea
3d1afecd
3d66ec7c
bce047dd
bd4a6881
3d076a05
bd120cda
3d867b68
3d737f88
bd5f3be3
3cd3415b
3d1ab456
bd8b4dac
bc64af9d
3d3b59e8
bdaf3304
3cc102f6
3e27fffa
3d8c7023
3e61e400
3e33c611
3d572cb8
bda9cba7
3ba9ed08
3d1a4ee7
bd185580
bc55917f
bdc859d6
3d27d244
bdcfdc1c
3e3d5aea
3e003b8c
3dd71e4d
3d9bd63f
bde66f15
bd8dba71
3d965c5d
bd6230b7
be889f9f
3d2eb17d
bc81a493
be078f1e
bd3a553d
bdb95e94
bd942389
3d86524c
bd364690
3dbcb5c2
bc9f45fe
3de004ff
3e1456c6
3e7db53f
3e5b69f5
3d6aae46
3e28f442
3e62ef15
bd5dfb31
bcd5303e
ba7bcb40
bcc88490
be41bfb6
3e2ca3e1
be79c559
be1f8916
3daf64ea
3e10164b
3e04dd9f
bcb86d93
be33421a
bdb9b15d
bd964af9
3d6d82ea
be4dac4b
3e5e8b66
3c840003
bcad67db
3d0d1970
be2c817b
3d74aff2
3db1f458
bdabd716
3d30d78b
bd896d9f
3e8884f5
bd971a7d
bc4e5ca7
be6f7071
3e001050
be37547c
3dd22c89
be03ef95
3df5cd39
bddb120d
bd06cc3e
be07da55
3e3ba14f
3dcc395c
be2caac6
be6260ff
be4cd9d7
be35d9e8
be0ed7e1
bc0069c0
bd132987
3d768c95
bd0c513d
3a2c5282
3dc6f85a
be187f62
bdbfeb0a
3e0d99c8
3d462eb0
3e8774b0
be463abf
bed36623
bd54f4aa
bd461af6
be8c663d
bdb7d22a
bd04aaca
bda1d9aa
bd196838
3d48a305
be099054
3d362256
3da01569
3dad5ee3
bd933ae4
bdca489d
3dd483dc
be82bf4c
3d8528e8
3d5281d5
3e041904
bd10b381
3da93f62
be236751
bd1f461b
be908e9f
be4d8788
bd8f6c05
be7a681b
bdc234d1
bdcb7dc2
bcd07003
bda039e7
be080951
3dcb23bf
3d084c55
bde19ade
3d9e12a2
3d20dd25
bd6e7872
3c9b5d04
3d82cdcf
3c4a01ce
3d07c1fd
3c835cca
be02c198
3ddaee16
bde8e8e5
3e0c6891
bdf4cebe
bd753590
bd9614e6
bdfc5a57
bbde955b
3e08ada0
3c9b11d7
bdc80d14
3e45e1ef
bcdde159
3beaef77
3e630c2d
3de382a3
bbaf3e40
bd817643
3e80ea8e
3e22b3ee
bdfe1e1d
3db685d3
3db81f0a
3dbf64c0
bcebe9bf
3defc9f7
3e33231c
3e5e4608
bdd60cd8
bd9cac93
3e2273e5
bd3e688c
3dc68a86
bd88f483
3b81dbec
be043b4b
be09393a
3ddf09c0
3e556ac0
bc791199
3c0d868a
be7fb7e4
bd718d2b
3e5dd575
3dd3205d
3cc0454c
3e33267d
be2bb53f
3e026282
bd88d21a
be2975c5
3dbe6752
be55571a
3db072f3
bde43981
3deedf9f
be15f6f2
3d09c505
be010ade
bdf486b0
bd732dc0
bd684b86
3e279b07
3d97bc17
3dc66809
be094493
3e9891a3
3c008296
be047197
be14c17e
3cb9f422
bdc5fc5b
3dc94279
bd699c71
3e25852e
bcae7fa1
bdb43233
3e21d96d
3b576c9b
bd3d97c2
bd089234
be8dd886
3decd861
bd836181
3e80a4b4
3dc1015d
bc7da2cb
3d9f0462
becf9dd0
bd271871
bb2edcc0
bdcd8f19
bd32bb32
3cdb1854
bd8a6000
bd58a705
be1a21eb
be14fdcb
3de17b99
3d9513aa
bdcef4b2
bbf43cc2
be0f8f60
bc5ad6ef
bdc20ca7
3d28cbf9
bd7853a3
bd64c4c9
bdc4dc36
3c0a2525
bccdcd36
bd340962
3d2574b0
bda46b57
bda6b136
bd1a51f8
3d05fa4d
bcffe956
bdbd0acc
3c7e63a7
3ae84345
3da9de20
3d9b4391
3b808055
3dc4e160
bb31e881
3c248d26
bd2413a3
3bcf2435
3c502510
bd0730d4
3c285822
bc80e7b6
bd807646
3d6f4ff2
bd9bfe10
bcbebac8
3cf1ee7d
bd78aaac
bc41cc3b
3c0c4266
3dcf5177
3b462635
bd8eb8e9
bd8cf760
3c331833
bcd56398
bd74c4fb
3dbb74c5
3d0107c8
3d360172
3d9cc9ee
3d92781a
3d194545
3dad79ee
3da2d744
3ddee9a9
3cc23ea2
3d0d0597
3d4b4727
3c96f759
3cb86ed8
3cd026a2
bd275f04
bd9d7610
bcb6e7ba
bd43f988
3d116e3f
bd4312ea
3d5a3aa4
bdafa812
b9d4199f
3d4db9cf
bcad5063
bd426b16
bd9d0a3e
3d433f73
3bfd306c
3c05e700
bd4db094
bd9bdcd5
bd595400
bd85ff4c
3d28e542
3d052847
3c26ef60
3cc6e4df
bc8638e4
3d1e0541
bda69451
3d892267
bd958da4
3d2badc1
3c6c31ff
bc09d8ab
3e15fbe1
3db0bba7
bee66cde
be258497
3d76a722
be81cfe2
3e0ca74c
3da0547a
3e1bb3ec
3e97e6af
bebddd0b
3df99c40
bdf5cd30
3dfdf571
3c348ab6
3e3bae13
be09e22f
bea5b0ec
baf8ffcd
be813864
bc7bf6ac
3e52cf13
3d035454
3df5229f
3d0f6554
3d0b9885
3d1545b7
3e9a79f4
be0f3466
3e87560f
bda69288
3e20a401
bec8433a
3c327069
3dff7181
bdc421fc
3e4bb4c4
3e292c81
bd92ddd5
be0051c4
bd0644de
3d3059d8
bea4c4c8
3d6e3cfd
be5b4e6c
3d9caf0f
bdaaba6c
3db7d404
3d2bda8b
3e1491bb
3e08a839
3cc9645a
3dd83a31
3daccf73
3e8af608
be260920
3c03d5f5
3d1b2b01
3daec285
3c5ff49d
3da0d21e
3e032d90
3e37e2c5
be93dab5
bd729ce6
3e658223
3d337d1e
bdfbb15a
be58a6f5
3d598b0a
bda4c2a4
be62439d
be7c6938
3dcaa813
be016528
bd37e320
be4f2a23
3e03b3fa
3e8bd478
be349035
3df16054
3e377794
bd9c64a3
3d5b3372
bc6c0008
3d3506c0
3daba653
bd03b226
3cf57371
bd72bbd1
3d994ac0
bce3001b
3c9f8e49
3d89c328
bd57b2ad
bd5492d5
3d31d4f7
bd3723a9
3d4ebd5f
bd018aec
bbedc1b0
3cd0ae8b
bd3a3dac
bd91b476
3d7d1fae
bd4abf3e
bd283a0b
bb63a322
bdcbb08e
ba7758e9
3d3ee39a
3bd96d62
3d21c871
3d111897
bbb67342
bd8640b3
bd8d148d
3d3041ff
bccb8b75
3cc23c89
bd35f206
3da81f07
bd8e1dc2
3d0b391b
3d47886c
bc485c7a
b93ed800
3c1e1a06
3d756d0c
3d5896fc
bc24709e
bd91d42b
bcaab7f0
bb7f4389
bd0d5829
3a8a32b6
3cc71dc8
bd828564
3daa6e77
3d72e9c8
bce5d770
bd693cdb
bd8043b6
bcc40b5c
3b450800
3da121fb
bd9ce55b
bcba4480
3bcde410
3d92e6cf
3d1a6dde
bd6b147e
bcf787d8
bd15fef5
3d9e62e3
bd4ba781
3d844525
3cbf6699
3b8fbf20
3db040f6
3d1137b8
3d10e7ac
bd2f909b
bd5e256e
bccadc5b
bd53a49f
3e06a4ba
bdcc967a
be1aabcd
be4e1388
bd77e571
be8999c2
3e984706
bdd3a9fd
bd88f79f
bed72601
be3b1518
bddf1315
3dc30197
bcfaa576
3e89e4a8
bdde05f3
be9a1b02
3e5cc7fe
bdc19eeb
3e005302
be2538f5
3d2570af
3ccd94db
be5f1a34
bdba12b8
3e2bfad4
bd159e77
3e6e29a9
bcee55ff
3d4e250c
3dfe471c
3e80029b
3da19fa4
3e380dc9
3cd7e85a
3bcf4ddf
bde3b0e3
be9dc6a1
be638438
be4f4afc
bd8901da
3e902cf0
bdced5b1
3da1194a
be15f811
3e09fd93
be4ac870
3ea2a61d
3e8e450a
bec9945d
3e5acf5c
bdefb6e1
bd0a9a6f
bdbf12ff
bd8bf74a
be23326b
bd272aa3
bdfb283f
3db2de3d
3c944e00
bda5f8b5
3e04c9b7
bdb0606c
3e0e883f
bebbc011
bea50629
bdb79b2d
be267f84
bca2d409
bd5ca1d8
bdff6c3b
be1fe693
3e4bfd5c
3dfd0cc0
3cef651c
bcd89aa1
bd504459
3ddac82c
3d11b9d2
3e3b3e1c
bdee7fb7
bdc9e7f0
3f102225
3b2f9d70
3de5978c
3d04a9d3
bd2e3bb6
be7a4994
3d0c7fc1
3dbeca48
be2dfeb7
bd68d5b3
3e12d9f4
3da8d307
bb33158f
bb54be23
be2f5368
be3bba07
bddb93ff
3b0ae200
3d346aea
be3b4aed
3d837c6d
be3e4111
bdf9f472
bcaa6455
3d481d3e
bda6b6f2
bd6b3da8
bd7599aa
be0cc2e1
bd264d64
3cd5720a
3e22f653
3e098dc4
be0119dc
be241d32
bd929ab7
bd1ea11a
3d4e8faa
3b0e1a92
bd1816be
bc2710bc
be290344
bd1b3a0d
bd61aa6d
bd0993fb
3d83868a
3d5d63ed
3d12c88c
3dbe48ec
be162347
3dc0618f
3d8b9728
bd3f52c3
3c799e40
3e0352cc
bc2ab126
bd682f49
bdf238ec
bdd3de4b
3dff29ea
bc3d2258
3ddf8a42
3df87390
bd9cb020
bd9bb680
bcfaf94a
3de1fc4f
3e463f2b
bcf2e3a5
3e22b283
3ccb025e
bc2066fa
bd99d9b2
3d1849d8
bce4fe8b
be99708a
3ce16dc4
bd0b4743
bcffd0e0
bdaf758a
bd16f092
bddb3a99
bc1b4899
3da1f28f
bee7da84
3d431af5
bb5a2504
bd54077e
3d3d53d1
3c7ba2ba
bb4275b2
3d95930c
bcaf493a
bc2eb7ad
3dadc138
bd9c7579
3d1b97d4
3d84405a
3d68d9e4
bd49bbec
bdbd2132
3c1538c2
bd4d1d02
3cd53456
3da43cab
3dbe7b3a
bd8a3a2c
bd93f7ba
bd310ca5
3ca7cb60
3aa70780
bd8e6dee
3cfff770
3cb320ee
3d976793
bc13d904
3d8c80bd
bccfaaeb
3d1eb318
3b2a01c9
3d8c641f
bafd10e7
3dae2f9f
bd7ad1f6
3c60090f
bb9605e1
bb990420
bd127feb
3d521d8b
bd011fae
3d946956
3dc2ec34
bd53a516
bd56b322
bda46ef1
bcf94763
3d915736
3d957491
bd52b7ce
3d7c9661
3d6232d8
bd4c5a5e
3c52cf1a
bab5ee9b
3cc01d48
3d40ea55
bd648c5a
bc97edcc
bd6c0f71
3db57120
3dc364c0
3ca1619c
bd293cc9
3d95328e
bcfef1f5
3da7fbb7
3c9546ca
3da6fa83
bc3cd208
bda2827d
bb827dc7
3db8fe06
3d8dfc66
bcd728d2
3d382b8f
bc64c5d6
bc704247
bd39efe5
bdb10d52
bc3bc7c4
3e2080c7
be0461d5
3d9d2cc3
bd2426a4
bd85b381
3e1f1b19
bd2de64f
3d9ad00a
bd301cab
bd2449d5
3d5a1500
be1d091b
3d19091c
3d965256
be129609
3dbb3900
bdd8f002
3d6e5a7a
3d0c57d1
3dbc1be7
bd91d0a5
3e68cff8
3b6425d9
3d4db720
bdb5ad2a
bd9f686b
bcebdacb
3dc2a368
be5292f7
be0d52c5
3c8e5816
bae04b4d
bd9775d2
3d11eed9
bc03a072
3dd897eb
3e65e101
bba82990
be024b95
3d1744f2
bd74c8c4
3e04eca6
bc3e7432
3da6d5e3
3e9720aa
3e23cb9d
3e5434b5
bd8c1a9c
bb45af4a
be5dafa8
3d059a9f
3dcff2d6
be23ecdf
be43bb78
bd35111f
be9a438a
bb94e462
3d9d3e51
be2d3523
3d4d5990
bd811846
be40fb1f
be51648d
bd6d643a
be9d3a0c
3dc101a4
bd9d48a6
bd1fe83d
3d2c3e71
bda4e7a1
bdc1af8e
be20d743
3ca328c5
bea0b000
3e4e6271
3a2d9482
bd19c0ab
3ca20e2c
bd7abd47
bed0e276
3d5460de
3da47651
be4d0e3d
3d86462a
bdc57a1a
3bf97e33
3d2ae886
3da516f3
b9cdf2bc
bcfe1100
3db601af
3d0b0a88
3db954b2
3cf0ebb3
bd320f77
3d4c1781
bd23433b
bd0e711e
3d8e5710
bd6441d2
bcdbff2f
bdaeb9dc
3d9976c8
3d53aeeb
bd8196e5
bcfd661c
3b84a7a0
3d0a0dfe
3d349534
3bff8550
3d0b691b
bd26016b
bcfed2ca
bd864220
bd7356f4
3cf26c7b
3d06bf3b
3afd6fcd
bc908c3b
bc8f960d
bd2a3067
bbd1dcd1
bb9d5470
3cb3925c
bc7ed040
bd5b9633
3d559454
3d5d84c9
bd0e3c06
3c97ee6b
3d0df457
bd63e650
3b9d890e
3d7afb65
bd85b2be
3c9cc64f
bd819374
3ca8e44d
bd9d5802
bd223ad3
bdac4685
3dc71f6e
3d095a24
3d059ff1
3d040788
bd8cc2e2
bbbe45df
bda70a22
bd03d03a
3d8c2977
3b8f28f0
3daed3da
3d64bf13
bcee5f3f
bad92ba0
3d8c60e6
bd1d2fe1
3d315ce6
3cb7a765
3d554827
bdb5dd80
bd46e4a9
3d458b05
3d984357
bdbb672c
bcf3ca36
bc879faa
3db28b82
bd9b2581
39937d66
3c98083a
bd50acbf
bdb25e1d
3d9a8066
3d24b273
3cdb5716
bd57e6b7
3d8a925d
3d9e65df
3d713a48
3d6d0c26
3c91054f
bd85d7ac
bcbcb78c
bda63314
bc270460
3d885e05
bd787a32
bc14b5cb
bbbe048a
3cd8eb88
3d31e042
bd0b3add
bd44eb2a
bcb04470
bd022831
bd5f95a3
bcaed971
bd8e8448
bd2c09c3
bbfc0d41
bc344df8
bcae3bc0
3d856745
bd967168
3a34d3bf
3db2976f
bd67bf92
bda8a557
3db609cb
3be98c90
bc738f8e
3ab2bc00
3b6b01b8
bd7b2b02
3c9e0a70
bc983328
bb671ea2
3cf52b55
bd73f9d4
3d363158
3d86c3a9
3aa73b66
bda65ca8
3d801479
3c73229c
3a4aca80
3d07730a
3bb56d28
bd010071
bc779b55
bd00c28d
bd936a36
3daf8e52
3d3da37c
bd8188ef
3d15f09d
bd2cae91
bd72f2c9
bda0fbf5
bd00eaa7
bc1ac056
bd86e5fb
bd86f41b
bd4a1bd0
3d71942f
3d029f8a
bce2a326
3cc8d06c
3d0d4fe6
bd438445
3d9e8928
3e554e22
3dfcba71
3d8384f5
be5de27a
3e2d4e1c
be978894
bd536a74
be29762b
3debb976
3b2c9a72
be035bf1
3dfaf780
bdbf5890
3dd7c087
3e30ab09
3dd64d6a
3c7168cd
3cd7da6a
3e02fca6
3ddb319c
bd0bde49
be1f3fd6
be034c6a
bd5497b2
bd0352ab
3e8bc07e
3dc01681
3da70ae6
bddcbb38
bdd139b5
3e265e5b
3d6f2950
3da2a8a6
bc743903
be70bb61
bc6a9ad9
bd100122
3d964e79
be065358
be99de6c
3c8107b7
3d9c671d
bd2ec03d
3e34e592
bf0d3093
3e8bf700
bd4c99bb
3e108abc
bd8733a7
3c38005e
3da13b7b
bcd50ee3
beab2023
bd164ce3
3df83dfb
be248e92
3d8704a8
bdea6a89
3e03bae9
bda4563e
3d77366e
3d86dbfe
3d60a9aa
bdd45f55
3d18acb3
3cccc170
3bb72bc9
bdb9151f
bdecbac4
bd8c6264
3cd2507e
3e374e30
3de8bc2e
bd0ab845
bca6ae0f
3e54b02a
bb9f5d97
3d36b7e2
3cee02fd
3cd3c878
3dc6f0d6
3d7613cf
3e0e3899
3df8fee7
be2cff33
3e4accb6
3dee7f90
3ca39593
bd11fc9b
3e171d9c
3ddd00c5
bce56cd5
3e35c28f
3db26c26
3e1b9546
3d566586
bdfc4546
be844d80
bcb46582
3df8633b
bd4f844a
bde92384
3e0f3827
be94967b
be8fe88d
bd94583b
bd3915d2
bcc85024
bdcd5537
3d97b95d
3da523a7
be22f967
3dcdf40d
be0266fa
bd934fcd
3e2d94b2
bd28b0ce
bda4fc5f
3d5e4b90
bdbbc906
bd700e55
bd3dd84c
3d734a64
3dca51a6
3d80b323
bdbfac2b
3d819da1
3d2f5fef
bd91db8d
bdae22d9
3d11ed60
be17a38d
3d6aafae
3de92464
bb1b20f7
bd780a3f
bcd63995
3e3ee600
3e348872
3c008dc8
3e09990b
3d94f892
3cd5267a
3d2e54fb
3e66d227
3c958651
3cca9da4
be4a942f
3ccf589c
bcbc740e
3c756e12
3d0dfbc9
bd00a711
3d222deb
be2e6efa
3e03c008
bd592202
3e29b574
3ce1ef20
be66c973
3d7268dd
3e033d90
3cad2bb9
bd5a613d
3e38cb15
bc3dbfbb
3cc915b2
bdbf3887
3c8520d5
3ce1b03c
be2c350f
bd827b9e
bd6f57df
bcf8ccb1
3e351d1b
3d1beaee
be43f872
3db96b6a
be21acd9
bd9ed36e
be7ade82
be3e6469
3e322518
be5b18d3
3dd10456
3cbaf392
bea245e9
be05c836
bbbb7b7a
be5fa809
3e5b26c9
be4ded8a
3cef57c4
3d1c9618
3de69a8b
3e8d5acb
be1ed117
3da51320
be323594
3e8c2a0c
be260493
3d9fa84f
3db89382
bd289a56
3e0bfe5f
3dadb6dc
3c2afce8
bdafa5e5
bbec302e
be8b30cb
bd92ffe9
be82bc98
3c8aae1a
be705b57
be120fb7
3d463de5
bdafd7ef
beaf61e8
3e21a186
be4c04df
3dd629e4
3e282a10
bea55fef
3ea4a5c4
bd2062fb
3df269ff
3edbeafa
bd1914d1
be81cd9d
bee6ff26
be82b18e
3e5fbc99
3dd2f324
be83e1d0
3ce57128
bdfbe55f
bd4071d4
3d5be5bb
bcb96f55
bebec7f5
3dc7326b
beb56593
be90ac52
3dd45e7e
3c45b16d
bdceb485
be512dc3
be56fd07
3e7e140f
3e21d964
3daecf43
beea9fd6
3c8e1fb3
bd551688
bd1e1838
bce9272a
3c7a0225
3c15783d
3d080120
3d1a2c43
bb1d4364
bc7f34f4
bcf43fa9
3c8a0d35
bd0d037e
bd59173e
3d9592d8
3e0ac219
bdd7264f
bda8694e
3d4e1116
bce01f1f
bd65e48c
bce7f460
3d13b9d7
3cedb0c0
bcc1a03c
3c832879
3d44aa1a
bb8c560a
bd52a0a5
bcd385c9
bd6671fe
3c99c27d
3d3069a0
bcaf4c80
3c420175
bdb0e417
3c63d219
bdafef0b
bd90ad7d
3d4b033b
3d7a1b74
bbbe4de4
3d330961
3da16158
3ce076c8
bd9fe351
bd8890e5
bd4d9359
3d81b872
bd91be77
3afa2231
3d18f370
bd850519
3c78fa4d
bc083d0d
bddb4668
bd5d301e
bd54c82f
3ba36270
bdab8c28
bbeb11ea
3d8f88b3
3d943319
3ba9d4e0
bd197a1c
3d52d761
bcc4149c
bd5c05f4
3d284448
3bb66dc9
bd873de8
3d48c177
bd714158
3cfec977
3d3158e9
bc0eb3d4
3d809c60
3d11e196
3d0cc7e0
bdbd5672
3d435923
bcbad24c
bc5b754a
bda86c00
3d92b960
3e414846
bdb063b4
bebbf569
be9716e1
be14d439
bdc9333a
be172098
be806070
3bc11ef1
bec64760
3e218fb1
3e3577ca
3e39cb30
3e3b1a38
3e052789
3e069ab0
bddd8d9c
3d86983c
3ded9ecc
be6411b1
bd8980d2
bd1fbc82
be30eeb2
3cc0b868
3e941c2c
3cde33b8
3e2ba0b1
bcacbdd3
3ba2236c
3ddcffa7
bd8a2628
bc981375
3e844a98
bf12c901
3e80db33
3b12690b
3e235cfd
be6037d4
bdd2ca3c
3d22059e
3e1d2dc3
bd3ec533
3ccc0ce9
3e3d45bf
bd179b7e
3e377866
3da38e9d
3ea8c025
3d129e60
3dc9031a
3d24a883
bd99b5ee
be5bee23
3b2e0f84
bda0d5f6
bdd96970
be99e15b
3e211d70
3d327103
bdcac5d0
bd98312b
be4e2f91
3d842d97
bebba80a
bb85b2d5
bd60bc2c
3bdc9378
3e54072b
bd811664
be64d3fb
be4bd7e3
be273f36
bdc97d88
3e58316b
be09b3b4
bd4a4729
3e35d45f
3dcdbfba
bedb052e
be9a9933
3e2eabc1
bee5005f
be833b11
be0156b2
bdcf2e0b
3c479f46
3d94c2a0
3d8feb43
3e729f8e
3a04c402
3da453fd
bd527eae
bd8572d4
bd639529
bde25b52
3d3e8ecb
3be1221a
bd167959
3dbb1d98
3d048638
be867ef4
bc3ed46e
bce83350
bd82d295
3da2569a
bd41cc2a
bce963ea
bc2a179c
bc38deb4
bc357785
bdbaa43f
bdc8d295
3dd49300
3b613b7b
3d56d2bc
3e83b562
3dcbba1b
bda9acca
3e445f47
bd40b527
3df9376e
bcab83bd
be4d7292
3cdfcaef
3ce17a84
bd501e34
bd3c360f
3e134e38
bd9cd7de
bcacffd6
3e411d93
bd18e2fc
bca53eca
3d908b46
be0856e0
be754598
bd68d6c6
bd8fc2a0
3da43507
3c8a291a
3c56847c
bdc4cfbe
3cad6227
bdf705c3
bd6902ea
bb98be19
3e24fb81
be227939
bd3012b2
3b131837
3dea987d
3e064044
bcd3cf02
bbc74ed3
be367d4b
bddbcb86
bd1b2e87
3ca89f58
3e077450
bdb45f3d
3d99dc2b
bdaaaba8
be0f64da
bcaae525
bbc96be3
3af95927
3cbdcd47
bdfe28c1
3cc7e47d
3de48c2b
be108ee1
3e41ec08
3d24f90d
3d14e0ee
3ccb2e3a
bd8c1115
3b1fb743
bdd48963
be507b81
3e0026e6
be46b819
3e21936e
3e46043e
3c8f3487
be8de38c
3e04742c
3dde44ad
3d451af2
3d5e53d7
3dd09e1f
3d80dfbf
3cb4553b
bdf3f841
be1f1c5a
3e06664f
bd1a2e9c
3c34426b
3d80b4fc
bd25dec7
be50128f
3c1bd1e3
3d10d9f3
bd8131a4
3dbdc06a
3e04db57
be5cce9a
be3fa78b
3d2d4eb4
bd57d2c4
bcfef9dd
bd61cefd
3e9429a3
bd85dc44
3d0f40a6
bd88a8a6
bddc4451
bd91f4e0
bc55a056
be0e58b4
3dd0cc7b
bd2e7f88
bdca30f3
3d575d2d
3dbaba7a
bcfafa0c
bd652ff8
3e41a8f3
bd7058af
3cdd288c
bd08e648
3e5bec0a
bdf97168
be499456
3c91b515
3da2d724
3c0cba51
bd792194
beb7ee22
3bafedcb
be16e9f1
3e025778
3e75a322
bdbf7409
bd89d7d6
3e77b381
3db5a877
3e01ec8d
bcf45562
bd5ba981
bd5f0c69
bde0c6e0
be1a0ff5
3d4536b8
bc1f677e
bcaa6cb9
be26ff81
3c8eba5d
bdc0405e
bcec9249
be34ec58
bd9d1f2a
bd0f9cf4
bdbae68c
3d150207
3d81ace0
3e4237a7
3dd5cb4c
bdbe6dcb
3e82405c
bbaac37d
bdfe3203
be6a2aa3
bd707d1f
3eafc736
be57f2d8
bdb28350
3e6f2d5f
be87a6ee
bc8c889b
bd87e85e
3db8d3b7
3d1c120c
3e3de54d
3db8498b
bcdec646
3e276d63
bcbc3a63
3e53d196
be46202d
be78a164
bcdefd5a
3c986fa6
3dcda9d1
bd18510f
3e6b1984
3da17a43
bd4c7f16
be4b15d3
bc3e4145
3e201629
bedf38d7
3e4d4a1d
3e4f6193
bd677a78
3df0f509
be23fa14
be166e36
3eccb8e4
3cc49df2
3ec1cdd4
3dbf4102
3db76632
3dd04a53
3d0308b4
be045468
3a9612e5
bebf42bc
3bd7e09e
3dfd265d
bd81d9ef
3cdc321c
be616dd4
3e74a072
bc070102
be41a2c1
3d98d8b0
bd39dba8
3d51c6df
3c824024
be8c0fe0
3cf277b3
3e6b19e9
3dc5f015
be0e7f13
3de69acf
bc30a8fc
bc564a90
3da35e84
bc680dd7
